#version: 0.2
h e
Ġ t
Ġ a
Ġ s
Ġ w
n d
Ġt he
e d
Ġa nd
Ġt o
Ġ b
i n
Ġ h
Ġw a
r e
Ġ f
i t
o u
Ġ c
Ġ l
Ġ he
Ġ d
e r
Ġwa s
Ġ m
Ġ p
o m
Ġ T
Ġ o
a y
a r
in g
i s
Ġ g
i l
i d
a t
e n
Ġ n
Ġs a
Ġh a
Ġ S
i m
a n
ĠT he
o r
o n
Ġ it
Ġt h
l l
l e
Ġ H
Ġhe r
e t
o t
i r
ĠS he
ĠH e
v er
e s
Ġ in
u t
o w
c k
Ġ e
Ġ u
l d
ĠThe y
o o
i g
Ġsa id
a m
il y
Ġb e
Ġ y
Ġ r
Ġs t
c e
Ġs he
Ġ "
p p
k e
it h
O n
Ġ I
Ġw ith
v e
L ily
Ġo n
Ġo f
Ġs o
Ġh is
k ed
r i
n t
ver y
Ġp l
Ġd ay
a d
Ġy ou
Ġth at
Ġu p
Ġha d
s t
Ġpl ay
Ġthe y
Ġ Lily
Ġw e
Ġm om
m y
Ġf or
e l
ou ld
u n
Ġ B
' s
it t
en t
Ġha pp
T he
c h
Ġl i
ou t
Ġwa nt
Ġs h
he r
l y
im e
itt le
ou nd
Ġ very
Ġt ime
om e
Ġl ittle
Ġthe re
s e
Ġd o
Ġw h
a ll
Ġ k
e nd
a l
h t
Ġn e
Ġ re
Ġn ot
Ġhapp y
Ġ Ċ
Ġb ig
Ġ M
Ġb ut
Ġs m
a ck
Ġsa w
ĠI t
Ġa s
Ġa n
r a
ri end
Ġf riend
id e
On e
r y
' t
v ed
Ġ is
On ce
a ke
. "
Ġwe re
t er
u g
Ġl oo
Ġl o
o re
e c
ĠT im
Ġh im
Ġb o
! "
Ġto o
Ġg o
Ġup on
ir l
Ġ j
Ġwant ed
Ġg irl
Ġs e
Ġ out
ar d
w ay
Ġs p
il l
i nd
Ġthe m
Ġc ould
f u
he n
Ġa t
u r
Ġd id
Ġsm il
Ġthe ir
Ġa re
Ġe x
Ġ A
a in
Ġw ent
ar t
he d
r om
i c
r ound
Ġha ve
Ġn am
l p
Ġa ll
Ġ J
fu l
Ġk n
h ing
oo d
Ġhe lp
ig ht
Ġfriend s
on e
ar k
Ġb ack
u m
Ġc an
Ġnam ed
Ġc l
? "
Ġf un
a re
ĠB en
Ġlo ved
Ġa l
el t
ĠTim my
Ġ One
o p
s ide
Ġl e
Ġn o
Ġs c
ĠT om
Ġf elt
ou g
Ġsmil ed
i ck
Ġas ked
Y ou
Ġto y
Ġm an
Ġa round
am e
Ġf e
Ġs ay
Ġbo y
Ġs ome
Ġloo ked
u re
om et
Ġb r
Ġw ould
Ġm e
Ġb ir
Ġli ke
g et
Ġst art
Ġr o
a s
Ġse e
Ġ W
i ce
on g
Ġbir d
Ġs omet
d d
Ġw or
ad e
i e
k ing
Ġa g
ow n
Ġt re
Ġf a
Ġa way
Ġwh at
ing s
Ġstart ed
get her
Ġr an
Ã ¢
â Ĥ
âĤ ¬
ar ed
Ġm ake
ĠB ut
it ed
i f
ou d
Ġm ade
Ġto gether
Ġsomet hing
Ġex c
a g
Ġc o
Ġp ark
Ġne w
Ġsa d
Ġp ut
, "
Ġf rom
b le
t her
Ġp r
Ġm u
Ġc ar
Ġh ome
Ġ You
Ġthe n
Ġw hen
Ġf ound
e ll
Ġo ther
Ġag ain
Ġc h
Ġd ec
Ġwh o
Ġl a
ri ed
s s
Ġg ood
Ġh ug
Ġ L
pp ed
Ġwa l
e p
all y
Ġsay s
Ġf l
es t
a ch
Ġ E
Ġexc ited
p l
q u
oo k
Ġg et
oug ht
Ġplay ing
Ġg ot
Ġs w
ou s
h at
n y
id ed
u ck
Ġth ings
Ġe very
Ġdec ided
Ġc ame
Ġbe c
a ve
r o
a x
Ġli ked
Ġd own
Ġdo g
Ġsc ared
Ġ v
u dd
u st
Ġon e
Ġf ind
Ġb l
Ġth an
Ġ D
ou se
way s
Ġkn e
Ġdid n
a p
Ġmom my
Ġc are
Ġal ways
Ġa b
is t
Ġd ad
Ġfe el
ar a
b b
ar n
f e
Ġyou r
Ġout side
u e
Ġg ra
an t
Ġ ke
ĠM om
Ġtoo k
Ġl ot
n n
Ġb u
Ġab out
es s
Ġ F
nd er
Ġtre e
ec i
Ġloo k
Ġp o
Ġm y
ou r
Ġtoy s
it e
c hed
Ġkne w
Ġth ought
en ed
Ġle arn
Ġin t
Ġo ld
Ġm ore
nn a
is e
g ed
Ġt a
udd en
eci al
Ġsp ecial
ĠM ax
a u
Ġw ill
er s
The y
re t
Ġp e
Ġh o
ĠS am
Ġt ake
Ġb all
Ġkn ow
Ġla ug
f ter
udden ly
Ġc at
Ġh ow
i ve
Ġt r
Ġmu ch
Ġan y
Ġp u
m a
Ġs l
Ġs or
Ġm o
v en
is h
Ġsh ow
Ġcould n
au se
in k
B ut
Ġh ouse
Ġint o
um p
Ġo ver
Ġt ried
a nd
Ġe at
Ġs k
Ġs un
Ġt w
Ġcl o
i a
Ġr un
Ġha nd
ĠE very
Ġ en
Ġin side
d y
Ġ if
Ġto ld
Ġne ver
i on
Ġ qu
Ġbec ause
b y
Ġpr oud
Ġg ave
Ġsor ry
Ġth is
Ġo p
Ġplay ed
at e
Ġex pl
Ġhe ard
t y
Ġo r
Ġwa ter
an k
g e
s ed
Ġp ick
ot her
Ġro om
et ter
Ġj ust
a ce
Ġhug ged
a k
Ġg re
he re
Ġof f
ĠS ara
Ġp ret
il e
Ġe ach
Ġc om
Ġl ong
Ġbo x
or t
Ġst r
i z
Ġu nt
Ġwa t
ot h
Ġne ed
Ġj o
ĠW e
T om
Ġsm all
in e
Ġbe ar
M om
Ġunt il
Ġn ice
Ġt ry
v ing
u c
s el
oug h
Ġlearn ed
Ġk ind
ĠA nna
il d
Ġf o
Ġman y
' m
ĠJ ack
Ġb etter
Ġ im
g ry
im al
Ġan imal
ur t
f t
Ġe nd
Ġs n
a ut
Ġt e
Ġc le
ĠJ o
v ent
ur p
Ġg r
Ġbe aut
Ġj ump
m b
Ġa d
re am
p t
ĠS o
ĠH er
Ġfl ow
i es
Ġc he
Ġb ra
Ġthan ked
Ġe ven
Ġb est
Ġc all
ad y
H e
Ġlot s
Ġlaug hed
sel f
Ġr a
Ġwa y
ar s
ur n
Ġb y
Ġfa st
ll y
Ġf am
Ġ C
v es
ard en
Ġg arden
Ġbeaut i
w n
T h
Ġbeauti ful
Ġl oud
le w
Ġsk y
Ġd on
h n
er ed
in y
Ġcare ful
Ġlo ve
Ġf i
ĠThe n
Å ĵ
a se
ec t
Ġsa fe
ĠA nd
Ġu nder
Ġc ome
ĠF rom
Y es
ĠM ia
I t
m e
Ġh ard
Ġc u
Ġw o
Ġl ist
Ġst ay
an e
s h
op le
Ġg l
n ing
Ġst ill
oo l
Ġh urt
re e
ĠH is
Ġim p
Ġfam ily
Ġ Ã¢
Ġb oth
r m
ig h
Ġli ved
he s
W hen
Ġpe ople
Ġanimal s
Ġco l
Ġbra ve
Ġwal ked
o b
T im
c t
Ġl et
urp r
ĠW hen
Ġtw o
Ġs urpr
Ġsh ould
is hed
Ġb ad
re ss
Ġke pt
Ġf ore
Ġf lew
Ġf in
Ġst or
Ġf ly
a st
is ed
i p
Ġit s
l ed
o ck
uc y
f ore
Ġgo ing
Ġcle an
Ġd an
Ġp ic
Ġso on
Ġcall ed
Ġsh are
k ay
Ġan gry
Ġro ck
Ġc on
Ġpret ty
N o
Ġ ide
i ed
il ly
Ġg round
x t
Ġr ed
Ġexpl ore
Ġc ry
Ġad vent
Ġst o
s o
Ġre al
L et
Ġw ind
Ġsh iny
b e
Ġb ook
Ġal so
Ġdo ll
Ġide a
Ġbe fore
Ġop ened
dd ed
Ġwh ile
um my
Ġke ep
Ġe y
Ġn ow
Ġdo or
Ġfeel ing
âĤ¬ â
o on
o y
Ġwal king
Ġno ise
Ġf r
le s
ag e
i ous
Ġcol or
Ġt urn
t hing
f f
u ch
t h
Ġb ed
ar y
Ġd ra
Ġpick ed
im b
e et
Ġcl imb
Ġd el
W hat
Ġbe ing
Ġf ood
Ġu n
Ġf ar
t ure
j oy
Ġadvent ure
a c
Ġsmil e
Ġd if
Ħ ¢
âĤ¬â Ħ¢
me mb
Ġw r
Ġth r
ug ht
Ġloo king
Ġne xt
ic ed
ĠL ucy
Ġno dded
Ġqu ick
Ġ P
Ġd is
Ġre pl
ĠD ad
Ġwa it
iz ed
Ġfore st
Ġclo s
ĠS uddenly
Ġt ra
T hat
Ġey es
g er
bb it
t ed
Ġo wn
Ġr ain
Ġimp ort
Ġgre at
Ġre memb
Ġpic ture
Th ank
S uddenly
Ġsto pped
Ġen joy
Ġv o
B en
Ġg ive
Ġimport ant
Ġwor k
Ġne ar
g an
p ot
Ġe ver
Ġa pp
Ġa fter
Ġquick ly
Ġlist en
Ġb re
t ing
bb ed
Ġm a
Ġf ish
Ġrepl ied
Ġra bbit
Ġhand s
Ġ G
Ġnot iced
Ġbr o
Ġsl ide
Ġth ink
Ġwal k
Ġtr uck
Ġa c
k es
Ġstr ong
S he
Ġshow ed
Ġd e
Ġevery one
Ġwo nder
fe re
by e
Ġdif fere
ir st
S o
Ġs ure
Ġha s
Ġr ight
Ġbe en
Ġbec ame
Ġs ound
ma z
Ġto w
Ġr u
Ġt al
Ġa maz
Ġhe ad
Ġsh out
Ġbr ight
Ġy e
Ġwat ched
Ġ R
Ġm or
Ġch ild
a ble
Ġme an
Ġw here
ll ow
Ġh igh
ĠS ue
Ġfa ce
Ġc ook
d ay
ay be
Ġwat ch
Ġbl ue
a ught
Ġdiffere nt
Ġst ore
Ġ N
Ġgood bye
Ġd ress
u ll
ĠB ob
n g
an ge
Ġs qu
Ġo kay
is y
le ase
ĠMom my
Ġvo ice
J o
at h
Ġn ight
ĠS pot
Ġu s
Ġbo at
Ġflow ers
Ġpl ace
Ġfo llow
Ġa r
Ġu se
Ġclos er
un ny
le ep
ir ed
Ġfa v
Ġy ell
Ġgra bbed
Ġcu ri
Ġwa rm
Ġc r
Ġfor g
ĠSara h
ĠJo hn
Ġm ag
Ġst ick
W e
Ġjump ed
Ġc ake
m ore
Ġt ell
Ġany more
A fter
Ġbut ter
nd ma
Ġth ree
Ġas k
c o
Ġ our
l ie
Ġcuri ous
ou nt
or n
Ġcon t
Ġfe ll
a ched
ĠT h
Ġbird s
as s
H er
is s
Ġhelp ed
ĠJ ane
Ġpu ll
Ġf irst
it c
Ġbl ock
Ġh op
Ġb it
Ġd r
Ġreal ized
Ġk id
L ook
il a
Ġm on
Ġbr other
A nna
S ara
Ġ z
ĠEvery one
Ġat e
Ġdo es
im es
Ġhapp ened
Ġst op
z y
Ġy ummy
Ġfav or
pp y
Ġk itc
Ġkitc hen
Ġsw eet
u s
Ġp er
Ġre ally
a isy
Ġgra ss
Ġfavor ite
Ġbe gan
Ġre st
Ġre ady
Ġle a
Ġre ached
Ġunder st
a ir
Ġst e
Ġb unny
ĠA s
Ġstor y
' re
Ġp ain
Ġs ing
st er
Ġhe re
Ġsa nd
Ġon ly
Ġfl o
Ġa m
Ġgl ad
Ġt ri
Ġbe h
Ġwor ld
Ġop en
Ġc re
fu lly
Ġpr in
w here
are nt
Ġflow er
Ġthr ough
Ġb a
Ġfi re
Ġd one
Ġha ving
Ġth ing
Ġdel ic
Ġhim self
Ġt ired
Ġp arent
Ġso ft
Ġf ro
Tim my
Ġta st
Ġbutter f
ĠL et
Ġc ut
Ġp art
Ġwh y
k en
Ġm ess
C an
Ġwor ry
Mom my
i ver
Ġd in
u ff
at er
Ġmag ic
Ġwa ved
Ġshout ed
Ġpo nd
Ġkid s
Ġh at
Ġd uck
Ġse es
o lly
ill ed
Ġg ame
i ent
Ġma king
at her
Jo hn
A s
ak es
Ġcat ch
Ġse en
Ġc ool
at ion
Ġcom ing
Ġl ess
Ġd ark
Ġu sed
ed dy
Ġfi x
ĠJo e
Ġthan k
m er
Ġto p
Ġl ady
Ġha ir
ar ing
Ġp rom
Ġho pped
ĠC an
" .
ig n
Ġsurpr ise
Ġdra w
Ġm um
Ġm ouse
Ġfun ny
re l
Ġc ra
Ġ -
ap er
Ġf ull
Ġto uch
Ġl ight
Ġsp ot
re n
Ġd ro
ĠBen ny
Ġparent s
Ġwor ked
in s
one y
ĠD o
Ġsurpr ised
Ġcare fully
Ġtre es
Ġfro g
Ġsw ing
Ġdo ing
D on
Ġs at
in ally
ĠT hat
Ġ ice
ĠI n
Ġhe ld
W ow
Ġrun ning
Ġpret end
Ġsw im
Ġs et
Ġre ad
Ġdelic ious
Ġneed ed
Ġt ight
Ġsl ow
Ġrememb ered
Ġlo st
Ġco ld
Ġsm ell
ard s
Ġw ood
Ġhapp ily
h y
el y
Ġlook s
Ġbeh ind
Ġher self
Ġc ried
Ġenjoy ed
Ġnam e
as k
Ġye ars
Ġbu y
Ġho le
Ġblock s
Ġd ri
Ġs leep
Ġg i
Ġyell ow
c ess
Ġbutterf ly
i ke
u ed
Ġw ished
Ġper f
Ġan other
ĠD aisy
Ġgre en
Ġmo ve
Ġt all
Ġa ir
Ġb ag
Ġflo or
Ġcar s
Ġless on
u l
Ġb ow
Ġar ri
Ġwind ow
Ġsh o
Ġchild ren
n er
Ġfin ished
Ġh ill
ĠA fter
and y
s p
en s
Ġp aper
Ġli kes
F rom
s y
Ġho ld
S am
Ġwr ong
re ed
Ġcont in
Ġunderst and
at ter
u it
re w
Ġg ent
Ġany thing
Ġclo se
Ġwa ll
Ġe l
as ure
Ġle ft
Ġa ble
Ġarri ved
Ġh un
ro ss
a v
Ġhe ar
Ġfriend ly
Ġforg ot
Ġg one
am a
Ġcre at
Ġw et
Ġli on
H ell
Hell o
Ġd ream
Ġh ot
b o
b er
ĠS ally
Ġf illed
Ġd ir
ie ld
Ġcook ies
Ġlaug h
Ġbro ken
Ġdin ner
l f
Ġel se
Ġh id
c ed
Ġp ink
Ġfollow ed
Ġta ble
Ġm ar
Ġcolor s
ou p
Ġmom ent
Ġcontin ued
Ġwonder ful
ĠE m
e y
in ed
ir rel
r ot
Ġfin ally
J ack
Ġa rm
Ġm ight
ĠN ow
Ġc ast
Ġy es
Ġbu ild
Ġen ough
ĠB illy
Ġsome one
Ġperf ect
Ġfa ir
Ġstay ed
a pp
Ġmor ning
ĠThe re
Ġpu ppy
o l
Ġdad dy
Ġtry ing
' ll
Ġj u
Ġother s
Ġbook s
Ġag reed
Ġmu s
Ġsn ow
Ġsqu irrel
Ġc ream
ro om
Ġget ting
Ġgra ndma
ĠL ila
Ġlea ves
Ġba by
Ġc ount
ic y
Ġfe w
A t
Ġf all
The n
g on
Ġbre ak
Ġclimb ed
ri es
Ġbe ach
as h
Ġb ug
Ġp lease
Ġm other
Ġbr ought
Ġtra in
an ce
ĠTh is
Ġde ep
Ġv is
at ed
s hed
Ġm et
Ġwas n
Ġsomet imes
Ġevery thing
ĠTom my
i ch
Ġmus ic
ke y
l ing
Th is
o s
Ġturn ed
l c
Ġr ide
o om
Ġs ong
or ing
Ġsp ark
Ġf ight
Ġhun gry
on s
Ġpicture s
d s
Ġm akes
Ġse ar
uck y
Ġlist ened
Ġjo y
Ġpo l
ĠW hat
H is
e e
Ġcl ot
Ġsa il
a pped
b ble
Ġcom p
Ġpl an
Ġwant s
Ġclot hes
Ġpo in
Ġ K
z z
Ġball oon
Ġstr ange
m an
en ny
Ġp i
Ġgr ow
Ġfly ing
r ow
Ġsc ary
Ġtre at
Ġwa ited
Ġamaz ed
Ġt eddy
Ġcast le
is ter
Ġe le
Ġamaz ing
m ed
Ġsp l
O h
Ġle ave
Ġown er
Ġprom ised
Ġdan ger
e ver
O K
Ġs uch
Ġwh ite
Ġp at
Ġtal k
uff y
Ġf ur
Ġp ie
op e
r ed
Ġpull ed
Ġp re
Ġwood s
ĠT o
Ġsh ared
Ġal one
Ġtow ards
c le
ĠM aybe
Ġs it
Ġn ap
Ġcolor ful
am p
h one
Ġvis it
ig g
ug g
th y
en ce
Ġta il
ct or
Ġmagic al
Ġr iver
Ġh ig
Ġbe lie
Ġgr ate
u ally
an g
ot t
Ġh ide
Ġs illy
Ġsmil es
ow er
Ġs ide
M ax
Ġro ll
Ġg u
ĠA my
Ġpr o
et er
Ġfast er
Ġgrate ful
Ġtre asure
as ed
Ġsn ack
u p
Ġla nd
av y
Ġmor al
ain ed
Ġs ister
ĠG ra
Ġsh ap
Ġpain t
Ġslow ly
Ġf ield
Ġp et
Ġs ec
or m
ĠJ im
Ġbr an
Ġm in
Ġmu st
Ġhelp ing
Ġwor ried
Ġjo b
Ġfo x
s et
Ġm oney
Ġp ot
Ġqu i
Ġbe l
Ġac c
Ġli ving
Ġmon ster
le ss
Ġpart y
e ar
Ġmo st
Ġwe ar
Ġrememb er
i re
Ġs ign
w l
Ġcl oud
Ġc andy
Ġhig her
i pped
id ent
ĠA ll
d er
z e
Ġqui et
Ġto wn
un ch
Ġprin cess
Ġrun s
ask et
e m
Ġevery where
Ġjo in
Ġste pped
Ġb asket
Ġl ake
Ġcu p
s w
out h
Ġcar rot
Ġco ll
Ġpl ant
Ġsc ream
ĠDad dy
Ġb uck
Ġhe avy
Ġbig ger
Ġch o
Ġbl ank
Ġclo sed
Ġw on
is es
Ġan sw
b r
Ġblank et
Ġm outh
am es
ec es
Ġeat ing
Ġpi eces
ck et
Ġst re
Ġwe lc
Ġwould n
Ġre ach
Ġbro ke
e ared
Ġdanger ous
g s
p h
ĠM olly
Ġc e
ĠM r
or d
f ort
Ġdoll s
m ing
Ġdan ce
Ġdra gon
Ġthink s
Ġask s
Ġac ross
O kay
Ġch air
Ġte ac
Ġb ott
H i
Ġp a
Ġne igh
Ġb ar
Ġb ike
Ġp ack
it ing
Ġdis app
Ġneigh b
Ġst uck
d e
Ġg if
Ġfr uit
Ġbelie ve
c y
Ġ ve
Ġcry ing
i er
ph ant
Ġs uddenly
Ġs oup
Ġr ace
Ġth rew
S ure
Ġfar mer
Ġacc ident
Ġdir ty
Ġele phant
Ġmon key
Ġhe al
w eet
Ġre m
Ġp ers
Ġsa me
or ed
vent ually
e ad
pp ing
Ġgent le
Ġf ree
Ġbr own
M aybe
Ġin st
Ġbe e
i x
Ġb en
Ġw in
Ġbl ack
Ġal ong
Ġlong er
i ble
Ġsp r
Ġcl apped
F inally
W hy
ck ed
Ġwor ds
ĠF l
Ġteac her
Ġup set
ch ool
Ġpie ce
Ġwe ll
Ġche ered
Ġh it
Ġsa ng
m ent
Ġbow l
Ġb ite
Ġdo ctor
ĠJ ill
Ġbuck et
M ia
Ġb ath
Ġc aught
Ġhe art
Ġfor get
Ġm ark
Ġbut t
Ġd ry
Ġyou ng
Ġse a
Ġc our
Ġdro pped
es e
Ġy ard
Ġpl ac
our n
Ġs chool
Ġsw ings
bb y
Ġw ings
b s
Ġexpl ained
Ġj ourn
Ġbr ing
Ġdr ink
Ġstre et
Ġju ice
un g
Ġnear by
ĠEm ma
Ġsm o
Ġsm art
Ġpu shed
Ġstor ies
Ġdro ve
Ġt iny
Ġp en
Ġcour se
Ġ es
Ġm ine
Ġto day
Ġpo cket
Ġye ar
aught er
Ġj e
Ġsec ret
Ġex p
Ġwith out
Ġsing ing
Ġwelc ome
Ġhapp en
t o
Ġf it
Ġst u
ve l
ra ct
Ġbu s
Ġche ese
Ġcr ay
Ġfair y
Ġj ar
Ġturn s
Ġbu sh
b ow
ll o
Ġexpl oring
Ġl on
Ġst and
itt ing
Ġsee med
Ġsp oon
ĠF inally
Ġg ames
Ġwo ke
is sed
Ġre sp
Ġtr ou
Ġtw ins
Ġhop ed
Ġat t
Ġlon ely
Ġa nt
ĠM ama
or row
Ġno ises
Ġhug s
ount ain
y ard
Ġd aughter
Ġin v
Ġke y
a il
Ġrock s
Ġdis co
Ġs u
Ġl unch
re ad
ou n
ver ed
Ġback yard
Ġs uc
Ġc ow
Ġapp le
e k
Ġsw am
Ġsho es
Ġst ars
Ġsh ook
itt ens
Ġm iss
c hes
Ġw ish
Ġre lie
fu sed
Ġshap es
urp le
Ġtow er
it y
Ġc orn
Ġmo ved
sh ine
Ġ 3
Ġth ough
Ġc ir
um b
Ġta king
t s
ĠT weet
ap e
Ġrain bow
Ġthr ow
Ġst ar
Ġben ch
Ġne ck
ock ed
Ġcreat ure
Ġbu bble
Ġl ate
Ġadventure s
Ġo wl
ion s
A nd
Ġw he
Ġp ar
Ġshe ll
Ġk ite
ĠFl uffy
in ing
Ġm il
u nt
Ġf ence
Ġm ix
Ġli ft
Ġaccident ally
Ġw ise
Ġhe llo
Ġp urple
pp er
Ġon to
Ġsp in
t en
our s
Ġs itting
id ge
Ġsun shine
Ġcut e
Ġm at
w ard
Ġsh op
Ġwh ist
Ġd ist
Ġor ange
L ila
Ġn aught
ĠSam my
Ġnaught y
Ġn est
o se
or s
ll a
Ġmil k
f ish
Ġa f
Ġb oun
Ġp hone
Ġarm s
Ġe as
n ess
Ġcar ry
ĠGra ndma
o g
Ġb ought
Ġdri ver
Ġinst ead
L ater
Ġtal ked
Ġsear ched
g ged
Ġp ig
Ġco zy
Ġsun ny
itt y
Ġfeel s
Ġf an
Ġwonder ed
Ġcom es
Ġswim ming
u ched
Ġto uched
Ġp op
ĠIn side
a le
Ġl ucky
Ġlaug hing
Ġbel ong
Ġsound s
Ġw om
Ġc ave
le t
Ġjourn ey
Ġwom an
Ġc ou
Ġnot hing
Ġco at
Ġrelie ved
Ġ O
Ġpe ace
ad ow
Ġno se
Ġbu sy
B ob
Ġp ast
Ġapp les
Ġs ick
Ġr ope
Ġpat ient
Ġa ct
Ġp udd
Ġin c
ra id
Ġwatch ing
Ġbran ch
Ġaf raid
Ġto m
id er
Ġday s
Ġre t
c ing
ĠM ary
Ġb and
Ġfar m
Ġhug e
ĠTh ank
at or
Ġexc iting
Ġdan ced
th day
Ġwa r
ĠSo on
b all
Ġg igg
ble m
Ġz oom
Ġm ad
Ġv ill
Ġfore ver
Ġpro blem
Ġcoll ect
p ed
ir t
Ġmin ut
Ġw ra
h o
Ġli fe
Ġkne e
c es
D o
c er
m p
ar p
Ġk ing
Ġas leep
Ġret urn
Ġsh arp
Ġre l
Ġp ower
et h
Ġhold ing
Ġf ing
Ġheal thy
ĠM ittens
Ġpr ot
Ġme et
Ġor gan
Ġcle ver
Ġspot ted
Ġl etter
Ġg ather
al m
O f
e re
Ġr ound
Ġstor m
Ġprot ect
Ġgif t
am ed
Ġma il
ĠJ en
Ġbir thday
Ġpre s
Ġsa f
Ġneighb or
ep end
Ġta kes
s c
Ġe ar
Ġcom fort
Ġ ent
Ġre p
Ġpers on
Ġsmil ing
ĠW ith
Ġgent ly
Ġpoin ted
E very
ow ed
Ġsp o
co l
Ġtast y
ul ar
ĠJim my
Ġpl ane
st ing
h in
Ġh oney
it ch
Ġp ill
Ġp ass
itt en
Ġm atter
Ġad m
Ġtast ed
Ġsmell ed
n ic
o ve
Ġe ag
Ġsh ining
He y
Ġhop e
Ġplac es
Ġk ick
ĠC h
Ġpic nic
Ġbott le
Ġresp ect
Ġb lew
Ġapp eared
Ġsu pp
Tom my
ĠC ome
Ġsp ider
Ġint ere
Ġche er
bo ard
Ġwe aring
Ġpres ent
er t
Ġm ist
iz e
Ġtrou ble
Ġtri p
Ġp ract
Ġk iss
Ġqu est
o nd
Ġas h
Ġlo ves
Ġtight ly
g g
ar ge
Ġs ur
Ġsp read
a ur
Ġw ide
on es
um ber
Ġfe ather
Ġspl as
on t
nd p
Ġl ater
Ġwho le
Ġany one
Ġbre ad
M olly
Ġd es
Ġre c
ell a
Ġro ad
I n
Ġo ce
Ġgi ant
Ġoce an
el s
Ġpu zz
Ġcook ie
Ġp an
Ġp ath
Åĵ I
Ġcon fused
Ġscream ed
Ġcloud s
e b
Ġimp ress
Ġfr ont
ĠG o
Ġse at
le x
Ġl ay
Ġwh ich
l a
Ġth in
Ġte ach
er ly
Ġd i
Ġansw er
ung le
Ġa p
ss ed
h ile
u b
Ġl arge
Ġj ungle
Ġprom ise
Ġs er
Ġb er
Ġw ild
Ġb ark
Ġm ach
oo se
Ġbutt on
ndp a
G ood
Ġmy ster
Ġsn ake
Ġvill age
Ġh or
ĠEm ily
C ome
Ġtoo l
Ġput s
Ġla st
Ġim ag
ĠJ ake
L ucy
Ġt id
Ġb an
le br
Ġe ventually
Ġsl id
Ġwa ve
Ġli ve
Ġch ased
ĠEvery where
Ġce lebr
Ġcray ons
J ust
Ġsp ent
Ġwr ite
Ġgi ves
un k
if e
Ġdec or
Ġfo ot
Ġdel ight
Ġso l
Ġsand w
Ġdir t
ĠJ enny
Ġtal king
Ġtreat s
Ġc art
ch ing
Ġwait ing
Ġhid ing
Ġsnow man
Ġintere sting
Ġh on
on y
Ġshe lf
Ġtast e
e en
J im
Ġst ep
M um
Ġhelp ful
Ġfe et
Ġsh y
Ġgo es
Ġv al
Ġe mb
Ġst ood
Ġsh r
Ġbuild ing
Ġo ven
Ġst ret
Ġlove ly
Ġduck s
Ġcorn er
Ġwas h
ck s
Ġsp e
Ġpretend ed
Ġroll ed
Ġru de
o ld
Ġc alm
Ġp ile
Ġte eth
Ġjump ing
Ġz oo
Ġpudd le
Ġtid y
M ama
ig er
ip e
Ġbug s
Ġash amed
Ġb at
in a
ĠR e
Ġo b
Ġst ra
ĠS t
Ġwhist le
Ġban an
n ot
Ġn et
Ġforg ive
Ġprin ce
en er
Ġsh irt
Ġs el
Ġc oo
Ġemb ar
ump y
Ġspark ly
Ġrem ind
Ġs ug
Ġc ross
Ġm ind
Ġcan not
Ġsuc cess
Ġembar ra
S oon
Ġm ot
Ġsh aring
Ġwor m
Ġfo ld
Ġpeace ful
Ġw ore
Ġm ountain
Ġbl ow
l ice
Ġ ign
Ġbe ll
Ġfur ry
Ġgra b
al s
omet imes
Ġwhen ever
Ġp our
v ous
ll ie
Ġpu sh
Ġbre ath
Ġmach ine
Ġsug ar
Ġch ick
Ġcreat ive
S t
n ed
Ġb al
Ġst ir
Ġdo lp
Ġtri es
N ow
Ġl ad
ĠL e
Ġm ed
Ġp ool
Ġg ener
Ġsa l
or k
ul t
Ġspr ay
Ġsh ip
i an
Ġh um
Ġhe l
is a
Ġsel fish
Ġh ar
Ġfa ces
Ġmess y
Ġ '
Ġp le
ĠS ome
ĠH ow
Ġgo ld
Ġcho col
P lease
Ġminut es
Ġpill ow
M y
a king
Ġt un
Ġm issed
ig hed
Ġv an
Ġfix ed
Ġfight ing
o in
Ġf ig
Ġembarra ssed
Ġme ant
Ġdri ve
Ġtom orrow
Ġh ours
Ġc a
Ġn er
Ġsp icy
Ġknow ing
ĠP lease
Sara h
Ġlad der
it al
Ġhor se
at o
Ġu g
ĠJ ust
Ġtr ust
Ġho sp
Ġug ly
Ġhosp ital
Ġche w
Ġbed room
Ġeas y
Ġner vous
Ġro b
Ġthank ful
Ġcarrot s
D ad
ell y
Ġgre w
Ġcol our
Ġbar ked
Ġcou ch
Ġn ut
Ġme adow
Ġta ught
Ġunderst ood
Ġdisapp oin
Ġp as
an o
Ġof ten
Ġcl ass
Ġpas sed
Ġkn ocked
Ġland ed
Ġm ic
ir d
Ġfe ar
Ġco in
Ġmu d
w ork
Ġd eter
Ġre g
Ġreturn ed
Ġdeter m
Ġh ur
Ġfin ish
iz z
Ġte a
Ġsmo oth
m o
Ġst uff
Ġmo v
Ġgener ous
T o
Ġ On
is p
Ġdr um
o bby
Ġbubble s
Ġrob ot
Ġthe se
Ġse ed
Ġgl ass
Ġdisappoin ted
g round
Ġr ing
Ġc ard
Ġhe ars
Ġcar ried
Ġmo on
Ġchocol ate
Ġlea f
Ġsnack s
Ġcir c
Ġfan cy
d le
Ġsp end
ĠA nn
ust r
Ġcra b
Ġsong s
p ack
Ġp ir
eci ally
os aur
Ġso ld
Ġbr idge
ĠE ven
Ġsleep y
Ġhon est
Ġm ir
ĠB r
Ġpa w
p ecially
Ġa v
ĠW hy
iz zy
Ġche st
Ġwo lf
Ġdin osaur
Ġes pecially
Ġm ap
Ġg as
or y
Ġch ange
Ġgr oup
Ġgather ed
Ġs our
Ġpo or
Ġspl ash
Ġwa ves
Ġfor ward
Ġcl own
Ġmyster ious
r or
Ġbo dy
Ġfr ustr
Ġcra w
Ġf ake
Ġp in
Ġo k
Ġr ad
Ġwh isp
Ġtw irl
Ġstr ing
Ġsmell y
ĠTo gether
s ist
Ġc and
Ġg ate
Ġsc ar
ĠK itty
Ġneck l
B illy
Ġmot or
y ing
ot e
Ġsh ore
ur se
Ġje w
Ġwe ak
Ġgr umpy
Ġfing er
Ġsa ck
Ġk itten
Ġpol ite
Ġgl ue
u ce
Ġn umber
air s
Ġes c
Ġmir ror
Ġshe ep
Ġv ase
Ġplant s
Ġber ries
mo st
B e
d en
Ġj elly
ĠThe ir
Ġe mp
itt er
The re
Ġsc r
Ġgr ay
Ġpuzz le
Ġneckl ace
Ġm aybe
Ġpl ate
Ġal most
us ie
Ġfrustr ated
Ġemp ty
p ort
or ry
Ġth ick
Ġj am
Ġsk ipped
ens ive
ĠT eddy
ag ed
Ġclos et
Ġhid den
Ġexp ensive
Ġdeterm ined
Ġb ored
Ġl it
Ġd rew
Ġle gs
Ġho pping
at es
ĠS ometimes
Ġstick s
Ġon es
ĠA t
Ġbird ie
ĠD on
Ġpol ice
Ġfruit s
Ġt ick
Ġa unt
Ġw is
Ġb ake
Ġl ine
ot s
Ġst one
Ġdog s
au l
Ġfig ure
J ane
Ġs ight
Ġc ries
ĠB e
Ġmo ving
Ġcont ent
ĠBr own
Ġsa ved
Ġcl oth
?" .
bo x
Ġbran ches
Ġpack ed
Ġpower ful
Ġsplas hed
Ġfe ed
est ed
Ġyell ed
W here
d ge
k in
Ġt iger
Ġp ay
id dle
oo p
ĠB ella
Ġex am
Ġta ken
Ġcr ane
Ġspo il
' d
Ġha ng
Ġfl ag
Ġansw ered
Ġdisco vered
ĠLe o
u sh
Ġsa ve
Ġsee k
Ġexc ite
Ġpr ay
Ġjo g
Ġstand ing
Ġdolp hin
Ġj ack
A re
er a
ra g
Ġfl ut
get able
Ġb oring
Ġlo ck
Ġinc red
Ġexcite ment
Ġs ighed
Ġw ip
Ġf is
Ġf ill
Ġso ap
ĠM um
ol a
Ġple ased
Ġjack et
l ight
Ġs ugg
Ġm iddle
Ġe ld
Ġwr ote
Ġballoon s
Ġorgan ized
qu e
Ġsail ed
The ir
Ġtell s
Ġo y
Ġst ones
Ġbo ard
Ġsp un
Ġve getable
l ies
Ġ ind
in ess
Ġwor king
l ower
al k
if f
Ġpar rot
St op
Ġscar f
Ġwa gged
Ġcl ap
Ġme asure
as ing
Ġte ars
bo dy
Ġcomfort able
Ġle g
Ġsw an
Ġtr ue
Ġfr ight
Ġdr op
Ġsmo ke
Ġfeather s
Ġincred ible
g gs
u al
Ġt ie
Ġc ap
Ġlo se
Ġpu s
Ġeag er
Ġmov ie
f ic
Ġc op
Ġe ggs
oo f
Ġr id
Ġco vered
Ġf il
Ġle m
Ġgra p
Ġdisapp eared
Ġrec ord
ĠT V
ĠB l
Ġex t
Ġor d
Ġgigg led
c orn
Ġp ri
Ġha m
Ġr are
Ġyour self
Ġen g
Ġwh ale
Ġkn ife
ĠL isa
Ġte am
ĠJohn ny
z ed
Ġt est
Ġb one
Ġd izzy
Ġli br
Ġwra p
Ġquest ions
i v
Ġl ying
Ġst amp
Ġli cked
Ġno isy
Ġkind ness
Ġdif fic
Ġdraw ing
app ing
Jim my
Ġstra w
Ġb urn
Ġwa gon
at ely
Ġgr own
Ġrock et
Ġpop corn
S ally
Ġb atter
Ġwa nd
Ġan c
ĠE nd
Ġsw ord
Ġhappen ing
Ġlift ed
Ġbal ance
Ġext ra
S orry
h a
Ġwa nder
Ġf at
ĠM ark
ĠE lla
Ġbec ome
Ġtr ack
Ġsmall er
Ġmist ake
Ġto ast
at ing
Ġman aged
sel ves
ĠP eter
Ġbath room
Ġhar m
Ġdiffic ult
Ġtw ist
Ġoff ered
Ġru ined
Ġmat ch
Ġanc ient
Ġg ar
ill i
Ġdist ance
Ġplay ground
Ġla zy
Ġdan cing
Ġadvent ur
a f
ĠB a
Ġcall ing
Ġclean ed
Ġcr own
orm al
Ġon ce
Ġbo ss
Ġse ll
Ġwalk s
Ġfright ened
er ri
Ġm ask
Ġfl uffy
em o
Ġ Z
Ġf rag
Ġd est
Ġn ormal
Ġy og
Ġpick s
Ġey e
Ġdr ank
Ġcir cle
Ġadventur ous
S pot
Ġt ent
Ġp ress
Ġk issed
ic t
Ġsc iss
Ġget s
Ġtr unk
Ġche ck
Ġenjoy ing
Ġshell s
Ġeld erly
Ġsciss ors
Ġt erri
Ġto ug
ag es
Ġste al
M e
re ady
et e
Ġal ready
ĠL ittle
Ġju icy
Ġstu dy
Ġh orn
er p
Ġp izz
Ġall ig
Ġloud er
Ġtow el
Ġcirc les
Ġle ad
Ġro ar
Ġro se
Ġsl ipped
Ġte le
Ġfam ous
Ġar g
Ġcheer ful
ĠRe x
Ġtoug h
i pper
Ġb arn
Ġf ool
Ġd ig
Ġd ish
Ġagain st
Ġde er
Ġsweet ie
Ġeng ine
Ġ ed
Ġf ather
Ġco ver
Ġyour s
Ġneed s
Jo e
Ġbag s
Ġspin ning
S ue
Ġa w
an ged
am ond
Ġy arn
op h
Ġgi ving
Ġdi amond
Ġsandw ich
Ġind epend
Ġfrag ile
W ho
ce pt
Ġno sy
Ġtw ig
Ġhurt s
Ġsugg ested
Ġlem on
i est
in ation
or ge
Ġno d
Ġbl oom
Ġho se
Ġbox es
Ġreal ised
Ġfr own
ac he
Ġrel ax
Ġham mer
Ġa dded
Ġwe ird
Ġmo d
Ġcr ack
Ġallig ator
A my
G ra
o ot
Ġsh ake
ra ge
Ġlearn ing
Ġvegetable s
Ġa dd
Ġm elt
ĠS usie
el p
ĠB obby
Ġtra p
Ġcoll ar
Ġstu bb
i que
Ġb orrow
Ġp ump
Ġloud ly
Ġsear ch
Ġchick en
Ġpizz a
Ġindepend ent
Ġstubb orn
Ġre f
Ġas king
Ġbr illi
Ġdec ide
Ġfl ash
Ġcat erp
Ġqu een
Ġsn ee
ĠR ose
Ġinv ited
Ġstraw ber
Ġfool ish
Ġcaterp ill
g y
Ġt ur
Ġd epend
Ġg uit
Ġst ri
Ġkn ight
Ġboy s
Ġpe e
Ġcom b
Ġcle ar
Ġun ique
Ġbutt ons
ĠTweet y
Ġcolour ful
Ġesc ape
Ġbrilli ant
Ġr ich
ĠB u
Ġsay ing
Ġro de
Ġsk in
Ġgar age
H elp
d om
Ġm ummy
Ġbe ak
ur ed
a w
e orge
r op
ed ient
Ġun us
Ġoy ster
Ġtur key
Ġ OK
Ġf ountain
Ġp atter
Ġwe ek
Ġch ase
Ġru bb
Ġcount ed
Ġreg ular
Ġwip ed
Ġguit ar
Ġunus ual
l and
Ġu mb
Ġfor k
Ġshow s
Ġlight s
Ġwall s
Ġdream ed
Ġbanan a
Ġsuccess ful
Ġjew el
Ġpatter n
Ġumb re
c il
r ay
in al
Ġl ow
im ed
Ġsw e
Ġcry st
Ġpen cil
Ġsaf ely
Ġtool s
W ell
Ġt ape
Ġst ream
ce ed
Ġre sc
Ġab ove
Ġhard er
Ġgu ess
Ġbott om
Ġmark et
Ġimpress ed
Ġwa ff
an ut
ig inal
Ġnot ice
ill a
Ġno ds
Ġpe anut
ol og
Ġpat ch
Ġcraw led
Ġcaterpill ar
n a
Ġt ank
Ġt ask
Ġt ire
Ġg un
Ġlo ad
Ġcomp et
umb led
Ġap olog
Ġsol ve
H ow
M ummy
f ast
h ip
Ġ No
Ġb itter
ar l
Ġe ars
Ġsh one
Ġbr ush
ĠF in
Ġor iginal
Ġfi er
Ġgl ow
ĠN emo
Ġbreak fast
Ġadm ired
ĠBl ue
Ġed ge
Ġdepend able
u nd
ut h
ĠI f
Ġcl ay
Ġstrong er
Ġboss y
Ġc udd
as er
Ġgra ndpa
Ġknow s
Ġpick ing
Ġjo ke
Ġboat s
Ġba ld
Ġmed ic
Ġscr at
Ġc one
Ġp enny
Ġle an
Ġra ft
ugg led
Ġsuc ceed
Ġob edient
Ġhum ble
Ġlibr ary
R e
he ad
Ġp h
Ġn umb
Ġsa uce
ĠB ear
Ġtr ay
Ġproud ly
He re
Ġsound ed
Ġsqu are
Ġterri ble
Ġcryst al
Ġfier ce
J ill
Ġw itch
in ary
Ġhapp iness
ĠL ola
Ġhand ed
Ġfr idge
f a
Ġr ough
ent ion
Ġch anged
Ġjo ined
Ġra ven
Ġmight y
Ġcho se
Ġwhe el
Ġumbre lla
Ġt ag
Ġc ri
Ġo w
ar ry
im p
ĠB ill
Ġhelp s
Ġfind ing
Ġclean ing
Ġsqu ee
Ġfire work
Ġmedic ine
a zz
m et
Ġplay ful
Ġlo cked
Ġgo at
Ġac cept
Ġcomp ass
Ġsur f
Ġcompet it
e xt
k n
Ġs y
Ġs il
Ġbe et
ĠM ar
ur ing
Ġch ir
ĠE llie
Ġball s
Åĵ Let
Ġbutterf lies
Ġgu ard
Ġcray on
Ġdisco ver
Ġpar ade
Ġmix ed
Ġval u
Ġhel met
ĠBrown ie
E m
j ect
s qu
u d
Ġg um
at ure
Ġis land
Ġco st
Ġmo le
Ġnice ly
Ġkind s
Ġra ced
Ġsto ve
Ġlaugh s
Ġmar ch
Ġfall s
Ġpers ist
ĠBa by
oph ie
A lice
i ence
it o
Ġc age
Ġg oose
Ġco ins
Ġtr ump
Ġmo squ
Ġser ious
Ġmosqu ito
Ġf lex
Ġc ro
el on
Ġexc la
Ġch oose
Ġexpl ored
Ġun l
Ġbrother s
Ġgu il
Ġnumb ers
Ġtrump et
Ġ icy
Ġmom s
ie w
Ġv iew
Ġen orm
Ġfire man
ĠMr s
Ġpract ice
Ġenorm ous
w ards
Ġs up
Ġvo lc
Ġmean s
Ġpoin ting
Ġvalu able
Ġflex ible
Ġexcla imed
Ġguil ty
y al
Ġc am
Ġp ipe
is ion
ĠM y
Ġuse ful
Ġfav our
Ġcra zy
Ġph ot
kn own
Ġvolc ano
Ġwa ke
Ġc ity
om ed
ll ip
Ġfor th
Ġlo llip
Ġse al
Ġall owed
Ġsc are
Ġbright ly
Ġmar ble
Ġpop ular
Ġflash light
Ġcompass ion
Ġlollip op
Ġ U
Ġ ing
Ġh unt
Ġd ull
er ry
Ġst at
Ġshe l
!" .
Ġun known
Ġhat s
Ġsho ot
red ient
Ġbelong ed
Ġfavour ite
Ġing redient
Ġp il
Ġlo yal
Ġbra ce
ĠWhen ever
Ġdream s
Ġkick ed
Ġseed s
Ġtwirl ed
Ġsup er
t ime
Ġf ine
Ġbe es
Ġso fa
Ġsh ark
ĠM ike
Ġan x
Ġsad ly
Ġshow ing
Ġway s
Ġtruck s
Ġdelic ate
ation s
Ġrep e
Ġimpress ive
Ġpour ed
Ġpir ate
Ġwhisp ered
Ġharm less
a ff
Ġt urt
Ġt ied
ar oo
ad o
art h
Ġgra ce
Ġhand le
Ġen c
Ġdel iver
Ben ny
Ġru shed
Ġus ing
ang aroo
Ġshap e
Ġbus hes
Ġpersist ent
Ġg or
ĠS p
Ġk angaroo
Ġan g
Ġoff ice
Ġanx ious
G o
al ous
Ġsp ell
ĠW hile
ia ble
Ġpot ato
Ġje alous
Ġwra pped
Ġf our
Ġc urt
Ġlo g
Ġco al
Ġrel iable
Ġcurt ain
D aisy
Ġs udden
mb ol
Åĵ Yes
ac hes
ĠP e
Ġpain ted
ĠTo by
Ġce re
g u
Ġt ummy
Ġth ose
ous es
udd y
Ġcu sh
Ġmet al
Ġsy mbol
Ġbeet le
Ġcam era
Ġh ouses
il t
Ġcelebr ate
Ġdelight ed
Ġgor illa
Ġto oth
Ġth irst
ke ep
Ġsh iver
Ġre ward
Ġsp ace
Ġtra vel
Ġru bbed
Ġprin t
Ġdri ving
Ġmar ry
Ġwar ned
Ġsold ier
Ġmotor cy
c ut
Ġs on
Ġto r
ar lie
Ġher o
ie f
Ġcar p
Ġexcited ly
Ġte mp
ĠP ete
ĠBob o
co d
Ġhun g
Ġgrow ing
up id
Ġthin king
Ġtun n
W hile
c u
i pp
Ġh ay
Ġy et
Ġv ine
Ġac orn
icy cle
Ġpre p
Ġremind ed
Ġgas ped
Ġflut e
Ġord inary
Ġcro cod
Ġa mb
Ġc ur
ĠB et
ĠM andy
Ġpu p
Ġcreature s
Ġhur ry
Ġspoil ed
Ġt imes
Ġm is
Ġr ice
Ġst upid
Ġsh ine
Ġre sist
ug ged
Ġla w
Ġsk ull
co a
Ġmiss ing
Ġwhe at
Ġsupp ort
Ġingredient s
a id
l oo
Ġc ase
er y
Ġwas hed
Ġdo ve
Ġsp illed
Ġsc oot
Ġme al
Ġmu le
ĠD ucky
Ġmo der
ars h
Åĵ What
Ġtri ck
Ġset t
ĠTweet ie
Ġboun ce
Ġfil thy
Ġb ase
Ġh oop
Ġf re
Ġst umbled
Ġso ar
Ġwe al
Ġsee m
Ġwor d
Ġla b
ĠD ave
ĠF r
Ġbad ly
Ġhair y
Ġcra wl
Ġlive ly
Ġstep s
ÅĵLet Ã¢
Ġbrace let
Ġcere al
Ġthirst y
Ġcarp et
Ġw ool
it her
Ġgo al
Ġback pack
Ġtr uth
Ġcom pl
Ġche ap
Ġdis g
Ġplac ed
Ġear ly
Ġdecor ate
Ġnut s
O w
c ream
Ġb ump
Ġthem selves
ic es
Ġhelp less
Ġcl um
Ġsc atter
Ġsc ale
Ġnew s
ust ing
Ġen v
âĤ¬â Ģ
Ġtell ing
Ġswing ing
Ġspark led
Ġcarry ing
gg ing
in es
ri c
Ġfriends hip
Ġcare less
Ġsn e
Ġdoes n
Ġfall ing
Ġcomp ut
Ġpa le
Ġpee ked
Ġcompassion ate
c om
v ice
Ġs end
Ġst age
Ġme m
Ġch alk
Ġch asing
Ġpe bble
ĠEvery thing
Ġcu be
Ġpig e
Ġcou rage
Ġfing ers
Ġturt le
b led
Ġs ink
Ġb icycle
Ġsh aking
Ġsleep ing
Ġneighb our
Ġmoder n
Ġdisg usting
Ġclum sy
g est
Ġh ook
Ġc her
Ġn ail
Ġbig gest
ic hes
Ġbu l
Ġend ing
Ġde ad
Ġtri ang
ul ance
Ġspo ke
Ġpract iced
Ġamb ulance
Ġcomput er
i bb
Ġl amp
Ġst ation
Ġch ar
Ġwall et
ĠTo day
Ġpack age
Ġmic rop
Ġcush ion
keep er
Ġcrocod ile
Ġmicrop hone
u nder
ĠA lex
Ġthought ful
Ġjo lly
Ġpen gu
Ġpump kin
Ġcost um
Ġf ive
Ġd ough
Ġp ony
Ġo l
im i
Ġst airs
Ġkn ock
Ġgra nd
Ġint ell
Ġun iver
Ġbright er
Ġopen s
Ġdream ing
Ġboun ced
Ġquest ion
Ġstat ue
Ġw ine
is k
ĠA lice
Ġco coa
ĠYou r
Ġpe pper
Ġbeaut y
Ġper m
Ġpain ting
Ġsho e
Ġele v
Every one
hin o
Ġweal thy
Ġintell ig
n oon
Ġs uit
Ġm ild
Ġn ature
an s
Ġhapp ier
Ġne at
Ġstart s
uck ed
Ġafter noon
Ġtor n
Ġelev ator
g en
t i
Ġt en
Ġh arsh
Ġp ed
at ient
or ant
Ġre ce
Ġj et
ill ie
ĠR ed
Ġread ing
Ġsear ching
Ġbasket ball
Ġbar ber
Ġspe ed
S ee
a wn
Ġst ack
ĠM ummy
Ġclo ck
ĠG ive
Ġmag n
Ġlea ving
Ġcup board
Ġdes ign
Ġslid es
Ġsandw iches
Ġcand le
aul if
Ġrid ing
Ġfre sh
o ppy
Ġsh ocked
Ġen er
Ġjump s
Ġhair cut
Ġrespect ful
Ġcoo king
Ġtick et
Ġenc ou
Ġtunn el
aulif lower
G ive
Ġs le
re en
Ġm ay
Ġth ief
Ġy awn
Ġfor t
Ġal ert
Ġsor ts
Ġimp atient
Ġcre ate
ail able
Ġwhe els
Ġval ue
Ġpri ze
M ary
y e
he t
Ġs ent
Ġb ent
in ce
Ġc omet
Ġc amp
Ġc auliflower
Ġm elon
Ġg em
Ġit self
ir on
Ġmu sh
Ġmonkey s
Ġsal ad
Ġdest ro
Ġresc ue
Ġscoot er
Ġintellig ent
a z
Ġd ug
il ing
an ger
Ġr oof
Ġr hino
Ġsc old
ag het
Ġexp er
Ġbark ing
Ġbanan as
Ġign orant
Ġmic ro
Ġav ailable
Ġgrace ful
Ġmotorcy cle
aghet ti
h ood
ĠS n
Ġe arth
Ġbo ots
Ġsp aghetti
um mer
Ġag ree
Ġbu ll
Ġany where
ĠG eorge
Ġbeh ave
ĠK im
Ġpa id
sc ope
Ġstret ched
Ġfear ful
Ġav o
Ġmicro scope
I f
i o
Ġnot eb
ĠE ventually
Ġold er
Ġsn iff
Ġad vice
Ġstop s
Ġperf orm
Ġfur ther
Ġenv ious
Ġpige on
Ġmush room
Ġnoteb ook
u bby
Ġp un
at s
Ġn urse
or able
Ġth under
Ġcl apping
Ġv ide
Ġbu ilt
ĠC l
Ġun com
Ġshout ing
Ġar row
Ġdraw er
Ġpro v
fort able
Ġtom ato
Ġmeet ing
Ġob ject
Ġyog urt
Ġtemp le
Ġuncom fortable
e f
u es
ĠT ony
Ġloo p
Ġch ubby
Ġsw itch
Ġsk ip
Ġad orable
Åĵ It
Ġcount ing
Ġcoo ked
Ġp ist
ar ian
en ry
Ġst ared
Ġsh ut
ic op
Ġqu ite
Ġsn uggled
ĠGra ndpa
Ġtrou bled
Ġgigg le
Ġblow ing
Ġhel icop
Ġfis her
Ġpist ol
Ġhelicop ter
p ar
ĠS ophie
oo ped
ip s
Ġnow here
Ġforg ave
Ġmar ched
Ġtreasure s
ho st
Ġpass port
Ġstir red
Ġpus hing
Ġcompetit ive
Ġdestro y
Y ay
a ked
o e
t ter
Ġg ir
Ġg host
an ic
ke let
ht ub
Ġre ef
Ġse par
op ard
pl ay
Ġen vel
Ġbre at
Ġrep air
Ġfoot ball
Ġbat htub
Ġrubb er
Ġang el
Ġtriang le
Ġl ed
Ġm ill
ĠS h
ch anic
Ġnam es
Ġle opard
Ġno body
Ġany way
uc t
ct us
Ġshould n
Ġz eb
Ġgi ven
Ġhold s
Ġbar rel
Ġband age
Ġent h
Dad dy
Ġzeb ra
i ves
u be
y ear
Ġp or
Ġp and
Ġo tter
Ġr ibb
Ġsh ield
Ġme chanic
Ġdon Ã¢
Ġdis ag
Ġdis play
Ġmusic ian
cer os
Ġspe ak
Ġca b
Ġca ctus
ĠBet sy
Ġbul b
C h
e ath
i kes
x y
Ġt ube
Ġa head
Ġs ummer
Ġs kelet
Ġp urse
Ġkn ob
Ġdidn Ã¢
Ġcouldn Ã¢
Ġcol ours
Ġwindow s
oom y
Ġgif ted
Ġcart oon
Ġrhino ceros
g l
he art
Ġs ize
Ġb et
ĠM iss
Ġsc rew
Ġfl our
Ġbl in
ap a
Ġdis hes
Ġrain ing
Ġhop ing
Ġsho vel
Ġmin t
Ġjelly fish
Ġswe ater
Ġchar ming
Ġpengu in
Ġenvel ope
Ġenth us
Ġcab in
re c
Ġp ant
Ġth read
Ġin se
Ġst aff
Ġli z
Ġun pack
Ġwr iting
Ġtra sh
Ġroll ing
Ġwaff le
Ġ iron
Ġw ing
er able
Ġshe et
ĠB uddy
Ġsh adow
Ġro ared
Ġmu ff
Ġair port
Ġce iling
Ġatt ic
Ġorgan ize
Ġstret ch
Ġgrap es
Ġo bs
ĠA re
ĠW ould
ĠIn st
Ġpi ano
Ġsal t
Ġmis erable
Ġc ord
Ġd ess
Ġre fused
Ġsc reen
ĠD an
Ġstr ugg
Ġneed le
Ġbear s
ĠAnd y
Ġhead ed
Ġstick y
Ġfree z
Ġzoom ed
Ġimag ined
Ġmed al
Ġmagn et
rec i
Ġobs er
Ġ er
Ġli ves
ĠA l
ĠP at
Ġapp reci
ass es
Ġsail or
Ġminut e
Ġfisher man
v ision
Ġr at
al ed
Ġbr us
Ġch ance
Ġpo st
Ġsun gl
Ġche ek
ree ze
Ġde af
Ġru les
Ġfrog s
Ġair pl
ĠGo d
Ġstrawber ry
Ġsle pt
Ġliz ard
Ġsungl asses
Ġl uck
Ġin f
Ġbe ep
ĠB unny
Ġme as
Ġro d
Ġor der
Ġrest less
Ġsand box
Ġmess age
ĠJoe y
Ġcomp let
Ġatt ract
Ġgold en
Gra ndma
Ġpil ot
Ġpor ch
L ittle
l er
s es
Ġw ire
ĠS u
Ġsh ade
ĠM imi
ind e
Ġsome where
Ġla und
ap ers
au sed
Ġstr anger
Ġimp ro
Ġstick ers
Ġperfect ly
Ġve nd
Ġspr ing
Ġadm ire
ĠCh arlie
Ġbatter y
Ġsil ver
Ġpand a
Ġlaund ry
Ġb ikes
Ġc ards
Ġre inde
Ġput ting
Ġbu zz
Ġcat s
Ġtr op
Ġgl oomy
Ġtra ve
Ġwis hes
Ġtele vision
g n
h ouse
un e
ur b
ma nd
Ġend ed
Åĵ You
Ġlisten ing
Ġtow ers
Ġsweet heart
Ġste ak
Ġpretend ing
Ġinc l
Ġpress ed
Ġener gy
Ġskelet on
Ġtrop hy
J enny
m en
ed y
Ġha ll
Ġre co
ec ause
op us
Ġco b
ĠL ook
ax i
Ġeven ing
Ġtri cks
Ġplan et
Ġpet als
Ġletter s
Ġapolog ized
ĠMar ia
Ġchir p
Ġinse ct
ĠInst ead
Ġdess ert
Ġh ut
is on
ĠHe re
Ġwe igh
Ġk itty
ht ray
Ġas htray
Ġpo le
Ġexpl ain
Ġmag az
Ġsoft ly
ctor y
Ġstu d
Ġvend or
Ġcob w
c ome
n ight
Ġa x
Ġw ife
Ġd ive
Ġp it
Ġp ad
Ġp ages
Ġha lf
Ġme at
Ġnew sp
Ġpe ek
Ġho les
Ġsor t
Ġsun f
Ġun cle
Ġforgot ten
Ġpol ish
Ġdist urb
Ġlean ed
Ġshel ter
c ast
e ve
z zy
Ġa er
il et
Ġpe ach
Ġeat en
Ġsun set
Ġqu ar
Ġru b
Ġsand cast
Ġmar ried
Ġmin er
Ġhunt er
Ġax e
i pping
Ġto ilet
Ġd ust
Ġr ug
Ġhad n
un ately
her o
op l
Ġwor th
Ġblue ber
Ġba king
Ġcup s
Ġdist ant
Ġpir ates
ha ppy
Ġsuper hero
Ġreco gn
Ġaer opl
u by
Ġt axi
Ġl id
Ġin sist
ill s
ur ch
ĠW ill
Ġfa ctory
Ġgra bs
Ġclo sel
Åĵ That
ect ed
Ġun happy
ĠP apa
Ġz ip
Ġpast a
Ġrad ish
Ġstri p
âĤ¬âĢ ľ
Ġfreez er
Ġairpl ane
Ġattract ive
Ġclosel y
Ġt ut
Ġf u
Ġl end
Ġp ine
ĠT ed
Ġit ch
all ey
ĠW h
Ġfind s
Ġsn ap
Ġtra il
Ġshout s
Ġfield s
Ġcelebr ated
Ġspray ed
aw s
Ġmarble s
Ġvide o
Ġinf ant
w een
Ġt ub
Ġb ur
Ġc ell
Ġy ach
Ġwe ather
ĠB un
Ġsh ort
Ġv alley
Ġpo pped
ast ic
Ġclimb ing
Ġdis cu
Ġlight ning
Ġsur round
Ġgrap e
Em ma
f fe
m m
r ight
Ġh ipp
Ġm ama
Ġo ct
ĠS m
Ġst om
st ic
se um
if orm
Ġmu seum
ĠF red
Ġun iform
Thank s
Ġdraw ings
Ġcount ry
Ġmod est
Ġphot o
Ġscold ed
Ġblin ked
Ġyach t
ffe e
Ġoct opus
Q u
Ġ ig
Ġt ap
Ġb reeze
Ġp ow
Ġo ak
ar i
Ġre ver
Ġkne el
ia stic
Ġdel ay
Ġapp l
Ġcool er
Ġvis ited
Ġpre vent
Ġbel t
Ġatt ention
Ġinv est
Ġenthus iastic
Ġig loo
E ventually
Ġw igg
Ġp air
or ies
st airs
ic er
Ġco ffee
ro be
os ie
Ġthrow ing
Ġpudd les
Ġking dom
Ġent ered
gg y
To day
Ġpaw s
Ġreinde er
Ġto es
er c
ĠH arry
am ber
Ġy ield
un a
Ġfl ame
Ġche cked
Ġcon f
Ġfr ame
Ġde ar
Ġste am
Ġlion s
Ġspl it
Ġnap kin
Ġsec ond
iv al
Ġquar rel
Ġhipp o
Ġinvest ig
Ġu r
Ġr ise
st ri
ch ie
Ġan ch
Ġsp ir
ag g
Ġch ain
Ġv est
Ġra z
Ġz ipper
Ġdes k
Ġrad io
Ġpus hes
Ġcostum e
Ġm ath
Ġp apers
Ġe ither
Ġex erc
Ġcl ub
Ġcl aws
ĠW here
Ġch amber
Ġgre edy
Ġspr ink
Ġjourn al
Ġant s
aur ant
Ġunl ock
Ġbase ball
s ing
Ġt ucked
Ġs uff
om as
Ġv i
Ġdan cer
Ġsqu ash
Ġcr ow
Ġrest aurant
Ġwin ter
Ġboun cing
Ġarg ue
Ġcompl ain
Ġtut or
Ġanch or
h ic
Ġm ug
Ġp al
Ġo stri
an y
Ġli e
Ġstart ing
pl ace
up s
Ġve hic
Ġstuff ed
Ġcri cket
Ġavo c
Ġbet ween
Ġpant s
Ġinvestig ate
H a
Ġs ince
Ġwa ving
Ġf est
Ġhe dge
Ġe gg
ĠI Ã¢
ĠJ ess
Ġle ash
Ġran ch
Ġch urch
Ġfl apped
Ġshould er
Ġma ze
Ġpull s
ol in
Ġsign s
Ġimag ination
Ġexper ience
ĠSm ith
Ġspir it
o sed
Ġb other
Ġf urn
it ure
er o
om es
id es
Ġsa us
Ġre ve
You r
Ġsee ing
Ġfl ood
uck ily
Ġbu ry
Ġpo ke
Ġsl ipper
Ġgr in
Ġje ep
Ġcow s
Ġfrown ed
Ġnewsp aper
Ġraz or
Ġpal ace
Ġfurn iture
Ġslipper y
Ġb in
Ġc ared
Ġc ree
Ġin k
ent s
ĠM ay
ĠM illie
Ġtw ink
ion ary
ĠP olly
Ġtri pped
Ġthank s
med i
Ġwelc omed
Ġbee f
Ġbelong s
Ġkiss es
Ġber ry
Ġimag ine
Ġclass room
Ġpin ch
ict ionary
Ġpotato es
Ġsunf lower
agg ie
Ġcree k
r on
Ġd ictionary
ĠJ u
Ġal ive
Ġtra ins
Ġde mand
Ġar t
Ġcra sh
Ġmust ache
ĠCh r
Ġmod el
medi ately
n ie
ck ey
Ġgo lf
Ġsp ear
ss ible
ant ly
Ġho ckey
Ġcount er
Ġsail ing
Ġpoin t
Ġsplas hing
Ġbark s
Ġstra ight
Ġreg ret
Ġcand les
Ġhang ing
Ġref re
ĠU n
Ġsne ak
Ġmem ories
isk ers
Ġmagaz ine
i b
p hone
s it
in king
Ġf ought
Ġl aser
Ġe mer
Ġr ot
Ġr ake
Ġso ck
ch air
Ġli p
Ġre qu
Ġcar ing
ro d
Ġv eter
Ġint rod
Ġtr ade
Ġte ar
Ġsmell s
Ġunderstand ing
Ġsquirrel s
Ġbreak s
fort unately
Ġmail box
Ġmist akes
In side
Ġtele phone
a it
t ain
in arian
it es
Ġn ation
Ġsa ving
ĠH enry
Ġy ucky
Ġk ay
Ġnot e
Ġfl ies
Ġsw ung
Ġv et
Ġoff er
ĠC at
Ġfire place
Ġarm chair
bble s
Ġquiet ly
Ġeas ily
Ġeag erly
Ġsupp osed
Ġglow ing
Ġsepar ate
Ġcobw eb
Ġveter inarian
M r
N ext
a ct
Ġm en
ĠT r
Ġj azz
Ġno vel
as p
ĠL ee
Ġpe arl
Ġhard ly
Ġhot el
Ġju dge
Ġblanket s
Ġpuzz les
Ġshr imp
Ġdrop s
ache l
ar nt
Ġit Ã¢
Ġso il
Ġplay er
Ġwe ep
Ġcan e
Ġle arnt
Ġfeel ings
Ġpo ked
au d
Ġpoin ts
Ġinv ite
Ġcollect ed
Ġbal an
Ġchew ed
af fe
Ġostri ch
B ye
M mm
n ger
Ġs igh
Ġw iz
Ġb ri
Ġit em
Ġfl av
ĠF o
Ġrabbit s
Ġdress ed
Ġwarm th
Ġcreat ed
Ġbelie ved
Ġcoat s
Ġpatient ly
Ġdecor ations
Ġshr ink
Ġgir affe
Ġaeropl ane
Ġappl aud
Ġfest ival
B ecause
Ġm op
Ġsh akes
Ġj ug
Ġmo ves
Ġjo gged
Ġim mediately
Ġgr ill
ĠR o
ĠN ext
Ġflo ated
Ġpart s
Ġstre ng
Ġrem ove
Ġinst r
Ġresp ons
Ġdisco very
Ġjewel ry
Ġacorn s
Ġcur led
Ġol ives
Ġwiz ard
J ake
c akes
n ey
Ġthe ater
Ġh omes
Ġm all
Ġg a
Ġg ro
et y
el ery
Ġfa uc
Ġpe ar
Åĵ No
Ġide as
Ġsqu e
Ġmoment s
Ġbooks he
Ġgrow led
ĠGra ce
Ġcho ice
Ġshr ugged
Ġtrust ed
Ġcard board
Ġtorn ado
Ġfauc et
O k
c cer
l ow
Ġh ive
Ġwa gs
Ġc elery
Ġbe ans
Ġr ow
ĠJ erry
Ġkn ot
Ġmake up
Ġqu it
Ġfall en
Ġdeep er
Ġsol ved
To gether
Ġcap tain
ĠCl ara
Ġribb on
Ġchirp ing
Ġsuff er
Ġstreng th
g es
Ċ Ġ
Ġb le
Ġm itten
Ġp ra
is ing
Ġst able
Ġso ccer
st ers
ht er
ic ing
Ġlot ion
Ġbu ried
Ġlaug hter
Ġfo g
Ġbrave ly
Ġlet ting
Ġrepl ace
ĠR a
Ġap art
Ġfold ed
Ġvan ished
Ġring ing
Ġflut ter
Ġwander ed
ĠPe ople
Ġer aser
Ġbookshe lf
M andy
W ill
a b
c ase
n ies
Ġs ip
Ġc able
Ġp ur
Ġr hy
ĠI s
Ġon ion
all en
Ġch allen
Ġop er
iz es
Ġbra in
ĠR osie
Sam my
av id
Ġign ored
Ġchick ens
Ġpillow s
Ġwis dom
Ġburn ed
Ġsnee zed
Ġsucceed ed
Ġaccept ed
Ġstrugg ling
L isa
s ity
Ġl umber
Ġp age
is hing
ra ged
Ġse as
Ġpr op
Ġjo gging
Ġhurt ing
Ġdiffere n
Ġfollow ing
Ġcast les
Ġspark le
Ġgu y
Ġmat ches
Ġneighbor hood
Ġadm ir
ĠSt eve
Ġfis hing
Ġsandcast le
Ġvehic le
. .
W ait
v et
Ġp aused
Ġpl ates
Ġsc ore
ĠL illy
Ġsk irt
Ġqu ack
Ġte ase
Ġdra in
Ġamaz em
Ġchair s
Ġheart s
ĠO llie
Ġpresent s
Ġser ve
Ġcross ed
Ġtun a
Ġcraw ling
Ġamazem ent
Ġw ipe
Ġf ash
Ġl ime
Ġp ort
Ġsp ort
Ġcl iff
ap ed
Ġsl ice
Ġra il
Ġbook case
Ġbel ow
Ġsu b
Ġcollect ion
Ġsnee ze
Ġrepe at
Ġsett led
Ġprov ide
ĠSu zy
Ġvi olin
M ark
r iger
ut ty
Ġpl astic
se ek
Ġsc ooped
ĠL ater
Ġsw amp
Ġra ise
ct ion
Ġapp ro
ĠR uby
Ġset ting
ĠK ate
Ġhit s
Ġshop keeper
Ġinc re
Ġsaf ety
Ġsupp ly
Ġworm s
Ġign ore
Ġref riger
Ġsquee zed
ĠSp ike
Ġmuff in
ĠWh iskers
Ġkay ak
Ġfash ion
Ġrefriger ator
D id
Ġa chie
Ġf ut
Ġd uring
Ġp alm
Ġo il
Ġher bs
Ġbe gged
el come
Ġhapp ens
ĠA b
Ġkn own
Ġhelp er
Ġal right
as c
Ġfl ap
Ġsk ills
Ġop era
Ġim age
Ġkeep ing
th m
ĠK at
Ġstrawber ries
Ġcudd led
Ġcri b
Ġprep are
Ġscatter ed
Ġuniver sity
Ġsniff ed
ÅĵIt Ã¢
Ġdisag reed
Ġcomplet e
Ġincl ud
Ġinsist ed
Ġdiscu ss
Ġavoc ado
Ġgro cer
Ġfut ure
' .
n am
Ġhe sit
en se
es ide
Ġplay s
Ġwh ip
Ġwere n
Ġro ot
âĤ¬ .
Ġv ac
Ġpe aches
Ġroom s
xt ure
Ġdoor s
ĠP aul
Ġru sh
Ġhead s
Ġfollow s
iss ion
Ġz ig
ang es
Ġwar ning
Ġsaf ari
ĠRe my
Ġhar b
ĠZ oe
Ġyog a
Ġrelax ed
Ġbump ed
Ġperm ission
Ġbreat he
Ġbuzz ing
Ġminer al
Ġemer gen
Ġrhy thm
Ġoper ation
' ve
B ella
P eter
m end
s hing
Ġa ut
Ġb un
Ġf le
Ġd aisy
Ġd igg
Ġm ention
om mend
is hes
Ġher b
Ġst ro
Ġso ared
Ġsp ade
ink y
Ġhat ed
Ġrec ommend
la ire
Ġteach ing
Ġbat he
Ġsquee ze
ĠFr eddy
Ġpun ish
Ġdestroy ed
a h
i ved
l id
Ġb eside
Ġm ass
Ġe vent
Ġbo ot
Ġse ag
Ġme owed
Ġor nam
Ġjo kes
ff ic
memb er
Ġcontin ue
os ity
Ġent er
Ġmyster y
Ġfold er
Ġspend ing
ĠBe fore
Ġmelt ed
Ġappreci ate
Ġrever se
Ġpra ised
Ġdigg ing
Ġseag ull
w alk
Ġs izes
Ġd ire
ĠIt s
Ġle ak
Ġho lid
Ġcall s
Ġgl ove
Ġwhere ver
ĠN ot
Ġside walk
ĠBu zz
Ġimpro ve
Ġsurround ed
ĠRa bbit
Ġsub way
Ġvac ation
Ġholid ay
A nn
l s
l ier
re nder
Ġf ed
ar m
im ney
ĠHe lp
Ġso cks
Ġhis t
Ġli cks
ĠJ ones
Ġch imney
bb led
Ġpo em
Ġsl ip
Ġfam il
Ġun ite
Ġtall er
Ġspark les
Ġben eath
Ġdoctor s
Ġbring ing
Ġpast ry
Ġcollect ing
Ġpan ic
Ġjew els
Ġweek s
Ġcher ries
I s
T weet
c col
y m
Ġb ill
Ġg ym
or al
am ie
Ġr ust
Ġis n
!" ,
Ġj ail
Ġal arm
Ġbl ood
Ġru ler
ĠR achel
Ġpull ing
Ġplan ned
ang u
Ġdisapp ear
Ġelephant s
Ġap ron
Ġexam ine
Ġscrat ched
Ġdifferen ce
asc in
Ġhist ory
ccol i
J en
K itty
c age
f ied
t ress
Ġs ir
Ġs imp
Ġh ate
re at
Ġf ascin
Ġl angu
Ġbird cage
ĠL ou
ĠL una
Ġdog gy
Ġtra ffic
Ġbro ccoli
Ġstick er
Ġbit es
Ġrest ed
Ġrest ore
Ġpain ter
Ġfix ing
Ġatt ach
Ġmat tress
Ġwhist ling
ict ory
Ġsett le
Ġyawn ed
asp oon
W ith
f y
h ins
r ing
t e
en a
Ġhapp iest
Ġse w
Ġtre mb
ĠL iz
Ġmy self
Ġwater ed
Ġte aspoon
ĠN utty
Ġplan es
Ġacc om
Ġgif ts
ĠO r
Ġact ually
Ġeag le
Ġsur render
Ġfil m
Ġtwist ed
Ġdest ination
Ġscrat ch
Ġfirework s
Ġblueber ries
Ġstom ach
ĠTr ue
Ġharb or
Ġemergen cy
z ag
Ġ Qu
Ġl ily
Ġhe at
ĠS unny
ir a
Ġpo ison
Ġgre y
Ġcom fy
ĠTh omas
Ġflo at
Ġhill s
ugg age
Ġve il
Ġdrink s
Ġmiss ion
Ġthrow s
Ġear lier
Ġtrack s
Ġaw e
Em ily
ĠSn ow
Ġbun nies
N ot
i um
Ġt ide
Ġt ug
Ġto e
Ġto ng
Ġwas te
Ġre lease
Ġgirl s
ĠJ azz
ĠE ach
Ġgot ten
Ġshow er
Ġsecret s
ĠSh aring
Ġble ed
Ġaccom pl
A ll
m are
he st
Ġd are
at t
ĠS andy
ic orn
Ġsc ur
Ġbr ings
Ġevery day
ĠF ro
Ġpo ssible
Ġfast est
Ġun icorn
Ġdress es
Ġnight mare
Ġpet ted
Ġstret ching
Ġremind er
Ġdolp hins
Ġhur ric
Ġwhisp er
ĠBu bbles
Ġload ed
Ġencou raged
Ġchallen ge
Ġappro ached
Ġaut om
Ġfle a
Ġbill board
F l
w as
Ġto re
Ġto ur
Ġg ust
an na
am b
Ġbe nd
ad ium
Ġli ck
Ġex act
Ġme ow
dd y
Ġwor se
qu ake
Ġpo ppy
Ġsk ipping
Ġexplore r
ĠP enny
Ġspark ling
Ġve l
Ġeas ier
ĠAnn ie
Ġdish was
Ġuniver se
Ġearth quake
Ġobser ve
Ġmeas ured
Ġbri ck
Ġautom ob
Ġdishwas her
" ,
Ġth umb
et ch
Ġst adium
Ġre aches
ter day
Ġpe ered
ĠEvery day
Åĵ We
Ġapp ear
Ġour s
Ġland s
Ġwar d
Ġwaff les
omed ay
Ġrece ive
Ġrece ived
Ġfu el
Ġpow der
Ġsaus age
Ġrefre shed
Ġzig zag
S h
W elcome
Ġs omeday
Ġd ried
ĠT ina
Ġher s
ig ail
ick ey
Ġman age
Ġla id
Ġla wn
ĠD avid
Ġstr ang
iz ing
Ġte asing
ĠJo sh
Ġcu b
Ġcre pt
Ġspoon s
Ġinv it
Ġvill ag
Ġmail man
Ġmountain s
Ġhum an
Ġpray ed
Ġstri ke
Ġchir ped
Ġexerc ise
Ġgrin ned
Ġtong ue
Ġward robe
m other
ĠJ ames
Ġpo king
ĠC o
Ġwork ers
Ġwonder s
Ġcr unch
Ġrest ing
Ġlady b
Ġdi ary
ĠHow ever
Ġhur ried
Ġesc aped
Ġlemon ade
Ġphot os
Ġcher ry
Ġped al
xy gen
Ġrespons ible
Ġvel vet
F irst
S ometimes
p y
Ġf ile
all ow
Ġre le
Ġsp it
ĠW ho
Ġpr ide
Ġv ictory
Ġgl o
Ġgl owed
Ġthr illed
Ġown ed
Ġcont ain
Ġduck ling
Ġspot s
Ġsat is
Ġplant ed
Ġbuck le
Ġmark s
Ġslid ing
Ġcirc us
Ġdiscover ing
Ġrequ est
Ġadmir ing
Ġornam ent
Ġstrang ers
L uckily
n es
Ġ V
ed nes
ĠH ave
ir py
Ġwe ight
Ġwe ap
Ġsh ot
Ġj unk
Ġop in
Ġturn ing
Ġvo ices
Ġhop es
Ġflo ating
Ġsho pping
Ġmiss ile
ors es
ÅĵI Ã¢
Be fore
Ġpattern s
Ġcabin et
Ġrecogn ized
Ġmass age
ednes day
! '
i ers
Ġh orses
Ġl uggage
Ġwas hing
om ing
Ġo ats
Ġo xygen
Ġg ain
Ġg ear
Ġwe ighed
ore s
Ġqu iz
Ġor anges
Ġcle aring
Ġsto le
Ġwork s
Ġcont ro
Ġmar ching
ĠJen na
Ġsold iers
Ġpeanut s
G eorge
i en
l en
r r
ĠS ad
ĠS ee
as es
ĠW ednesday
Ġch ores
Ġover joy
Ġsn apped
Ġlet s
Ġclimb s
ac es
ĠN ina
Ġcatch ing
Ġcomp any
Ġproblem s
Ġlaw y
Ġur ge
Ġlip s
Ġlangu age
Ġexact ly
Ġglo ves
Ġoverjoy ed
E lla
L ola
S usie
U n
g ing
o ved
r ise
u ing
u de
Ġs i
Ġb ang
Ġc akes
Ġl ect
Ġd ent
at ch
Ġn one
Ġbe amed
Ġso aring
Ġwant ing
ĠJ e
Ġany time
Ġsun rise
Ġra cing
Ġcon es
ĠG ood
Ġper fu
Ġtast es
Ġpre c
Ġpan cakes
Ġrad ishes
Ġshel ves
Ġpad d
Ġlect ure
A l
D ave
m ble
p e
u x
u ry
v a
y le
Ġc aut
Ġl ux
Ġon wards
Ġso ak
Ġup stairs
Ġwhat ever
Ġfl at
Ġv room
Ġstr uc
Åĵ Thank
Ġz ipped
Ġdri ft
Ġbow ed
Ġsit s
Ġpaint s
ĠO l
Ġzoom ing
Ġser ved
ĠSome one
Ġsight s
Ġprep ared
Ġol ive
ues day
Ġsprink les
Ġhurric ane
Ġinvit ation
Ġladyb ug
Ġlawy er
Ġstruc ture
Y uck
d o
Ġc al
ĠT uesday
Ġr ag
ĠM aggie
Ġare a
ĠJ amie
Ġmu ddy
Ġsor ting
Ġpret t
Åĵ Can
Åĵ Don
Ġunder ground
Ġsurpr ises
Ġste el
Ġfire men
Ġcra shed
ĠDo ggy
Ġhig hest
Ġscream s
And y
Ġcomfort ed
Ġlab el
Ġfascin ated
Ġvillag ers
Ġperfu me
Ġprec ious
M ike
i k
r in
Ġb are
Ġc ape
Ġp ies
Ġo at
ver s
Ġe ff
Ġbe an
omet hing
Ġsl im
Ġgl itter
ĠR ob
amp oo
Ġfree ze
Ġdecor ated
Ġmov ies
Ġsteal ing
Ġpup il
Ġkneel ed
Ġreve aled
Ġsimp le
Ġrele ased
e x
j am
Ġ x
Ġwa gging
Ġbe at
Ġst aring
Ġso aked
ad ed
The se
Ġsh ampoo
Ġsc oop
bb ie
Ġkind ly
Ġby e
ĠC laire
Ġwonder ing
Ġz ero
Ġrem ained
Ġsol ut
Ġtun e
Ġstamp s
Ġstudy ing
Ġtwig s
Ġgrand mother
Ġitem s
Ġprop erly
Ġmention ed
Ġeff ort
Ġslim y
O uch
Y um
Ġ 1
Ġt im
Ġs ings
Ġd am
Ġd ied
Ġm ister
Ġo be
Ġn icer
Ġin ch
Ġe qu
Ġbe g
Ġex it
Ġall ow
Ġtre mble
Ġsad ness
Ġsto len
Ġrain ed
Ġtal ent
Ġcuri osity
Ġwood en
Ġpol ishing
ugg les
Ġmouth s
Ġwin ning
Ġblack board
Ġmark ers
Ġrelie f
Ġsaf er
ĠCh irpy
Ġcheer ing
Ġseat s
Ġrid es
Ġord ered
Ġcudd le
Ġmem ory
uct antly
Ġtrave led
ĠJess ie
Ġdemand ed
Ġregret ted
Ġweap on
Ġsi ren
Ġlux ury
D an
a les
e ed
f it
n eath
Ġto night
Ġf etch
Ġha nger
Ġdec ision
Ġche ss
Ġbra nd
Ġshould ers
Ġfire f
Ġbuild ings
Ġaccident s
Ġrem ain
Ġact ing
Ġpract icing
Ġsell ing
und ay
Ġunl ocked
Ġrepe ated
Ġnail s
Ġbrus hes
Ġmeas uring
Ġtrave ll
Ġstud ied
Ġcrunch y
Ġopin ion
Ġcontro l
Ġcaut ious
Ġobe y
L e
b ric
w o
Ġthe rm
Ġb oo
Ġb ank
ĠS unday
Ġout fit
ĠA m
Ġkn elt
omet er
Ġfa bric
Ġran g
Ġfl apping
Ġra ised
Ġunder neath
Ġfro sting
ĠLet Ã¢
Ġdark ness
Ġpack ing
Ġwar n
Ġpencil s
Ġconf ident
ĠQu ack
jam as
Ġsolut ion
Ġtherm ometer
E x
a is
i very
s on
Ġt ip
Ġw oof
Ġl ines
Ġp ause
ĠS ure
ĠS us
ĠS omething
ĠH a
ir ts
Ġre s
ĠM ickey
Ġlo ving
um ble
ĠL ucky
Ġstr uck
Ġstr uggled
ast er
Ġdra gged
John ny
bo at
Re ady
Ġneighbour hood
Ġbalan ced
ĠSnow y
Ġbleed ing
Ġscur ried
Ġautomob ile
W ould
Ġon ions
ind y
ĠJ an
um bs
Ġag o
Ġran ger
Ġbu dge
Ġte xture
led ge
Ġatt ached
Ġmix ing
Ġpast el
Ġent ire
ĠAnn e
Ġpun ished
Ġbrus hed
Fl uffy
Ġdent ist
Ġbare ly
F r
M oral
N ina
c c
Ġb unch
Ġg ained
ĠH oppy
Ġy um
Ġpr une
Ġknow ledge
Ġeat s
Ġsun light
Ġoff icer
ĠC arl
Ġstay ing
Ġreal ize
Ġtra pped
Ġbre aking
Ġdr inking
Ġper ched
Ġtouch ing
Ġcomp le
Ġvisit ing
Ġland sc
Ġwhist led
Ġrel uctantly
Ġcelebr ation
ĠSt op
iv ity
Ġrubb ing
Ġguess ed
Ġshoot ing
loo king
Ġencou rage
Ġcamp ing
ĠChr ist
Ġintrod uce
Ġmen u
Ġinstr uct
Ġga zed
Ġfamil ies
S ophie
d ing
k ins
it ies
Ġn avy
Ġr ipped
ri age
Ġfe ast
Ġco pper
Ġch ases
Ġv owed
ĠF irst
Ġpe el
ĠJo y
Åĵ Oh
Ġkeep s
Ġdel ivery
ĠP oppy
Ġbro om
Ġour selves
Ġsweet ies
Ġprin ter
Ġba ked
Ġcra bs
Ġnap s
Ġorgan izing
Ġpin ched
Ġclap s
Ġapolog ize
Re ally
Ġagree ment
Ġdisag ree
Ġcartoon s
Ġcrow d
Ġtwink ling
ĠChr is
Ġsigh s
Ġflav or
Ġtremb ling
ex p
Ġlandsc ape
Ġinstruct ions
. '
A h
T eddy
it ely
Ġc ash
an es
ir m
Ġst ing
Ġyou th
st ed
ĠB eth
ĠM illy
ĠM att
Ġbo om
ĠJ une
Ġro aring
Ġwor ries
ĠL u
Ġsw ooped
ĠF or
Åĵ This
Ġru in
Ġwin ner
Ġexp ect
Ġgigg ling
Ġfig ured
Ġmelt ing
Ġsurf ace
Ġcompetit ion
Ġshiver ing
ĠFr ank
ĠUn cle
Ġpur red
Ġachie ve
Ġsatis fied
ÅĵDon Ã¢
ĠHa ppy
exp ected
b oo
l oe
y ou
Ġs way
ed s
Ġb umpy
Ġhe av
Ġg le
Ġe ight
Ġst ool
Ġli c
ĠM ira
Ġsp ill
Ġbec oming
Ġdown stairs
Ġgre et
Ġgr ant
Ġsit u
Ġscream ing
Ġpar ked
Ġmot ion
Ġpour ing
izz ie
Ġrecord ed
Ġshiver ed
Ġperm it
ĠSn uggles
ÅĵThat Ã¢
Ġguy s
Ġinclud ing
Ġtim er
b ies
m as
z ie
Ġ Y
re ck
ĠS qu
Ġst yle
ĠB oth
ick y
Ġbr id
Ġdec ides
ĠL ena
Ġv ent
ust ed
ĠMom o
Ġche f
Åĵ Hello
Ġrock ing
Ġun expected
Jo ey
Ġforg i
Ġba bies
Ġcut ting
Ġyes terday
Ġgrow ling
Ġsec ure
Ġpa jamas
Ġboun cy
Ġsupp lies
Ġstir ring
Ġtwirl ing
Ġhorn s
Ġbloom ing
Ġswe at
Ġcostum es
Ġstrip es
Ġwigg led
Ha ppy
Ġintrod uc
Ġincre ase
ĠAb igail
Ġlic ense
A lex
K at
z ing
he llo
Ġt y
Ġs ix
Ġw est
Ġf irm
il es
ig ers
Ġst air
Ġso re
ent y
Ġan n
Ġout do
Ġsc ra
Ġro ots
Ġfl as
ant a
Ġtree house
ip ment
Ġcon n
Ġwait s
Ġrememb ers
Ġstore keeper
Ġsail boat
Ġpat ience
igg y
ang led
Ġbucket s
Ġspray ing
Ġvan ish
Ġdrum s
Ġdinosaur s
Ġoy sters
Ġpri ce
Ġpee king
Ġresc ued
ĠJu lie
Ġequ ipment
ĠChrist mas
Ġbrid ges
P ete
S ad
c ers
n joy
p ite
Ġt ugged
Ġs ides
ed ding
Ġb ones
Ġf reed
Ġc ott
Ġo as
ar row
ĠThe se
Ġth orn
Ġshe d
Ġsh ock
ĠIt Ã¢
as on
Ġch at
Ġbl ouse
ak er
Ġfore head
ac ob
ĠP ut
After wards
Ġsing le
Ġbeh a
Ġbuy ing
Ġarri ve
Ġspark s
Ġpet s
Ġpocket s
Ġmix er
Ġnet work
Ġarg ued
Ġbloom ed
Re member
âĤ¬âĢ Ŀ
Ġsne aked
Ġribb ons
Ch arlie
Ġobser ved
Ġdisturb ed
Ġrecogn ize
Ġgrocer y
Ġbeg in
Ġcautious ly
ĠAm el
Ġsitu ation
Ġoutdo ors
Ġoas is
C l
H arry
S p
o dy
Ġw id
Ġc ous
Ġp out
Ġp itch
ay s
id ing
el ix
Ġsp aces
Ġex ha
um ent
Ġch ip
Ġsl ap
ĠP rin
Ġwork er
Ġtow els
Ġste m
Ġste ep
Ġfro ze
Ġswim s
Ġpaint ings
Ġprincess es
Ġteac hes
Ġwin ked
Ġkey s
Ġmat ched
Ġmach ines
Ġcolour ed
Ġclown s
Ġburn ing
Ġcrack ers
Ġbase ment
Ġped als
Ġobject s
Ġshadow s
Ġmuff ins
Ġreve al
Ġcash ier
H enry
M ar
M ittens
d ie
i ar
nd ar
Ġwa ist
Ġc ust
Ġc ale
ĠH oot
Ġe ast
ĠB o
Ġsh ined
ĠM e
ĠA n
ĠA bby
art ha
Ġcan Ã¢
ick ed
ĠL ike
ĠD olly
ĠR obby
Ġus ually
Ġmon th
Ġmar ked
Ġpol ished
Ġbath robe
Ġpig s
Ġpast els
Ġpass ing
Ġblow s
Ġple asure
Ġrecord ing
Ġlibr arian
Gra ndpa
Ġcurtain s
Ġpebble s
Ġcomplet ely
Ġblueber ry
Ġpow ers
Ġaccompl ish
Ġcomple ted
Ġexha usted
Ġcust om
Ġcale ndar
M ay
a el
c les
e ep
j o
o lp
he w
Ġb ars
Ġm ice
Ġm ater
il ity
at ul
on nie
le y
ĠH op
ck y
Ġyou Ã¢
Ġwe b
Ġsh irts
ind rop
Ġle ather
ong o
Ġla p
Ġhug ging
Ġbl ink
Ġbu lly
Ġhow ever
Ġrock ed
Ġkeep er
th ank
ac ed
Ġimport ance
ĠG r
Ġcre ation
Ġmar riage
Ġsnow ball
ich ael
Ġrem oved
Ġrainbow s
Ġhor iz
Ġchew ing
Ġarg uing
ud olp
ĠMike y
ÅĵWhat Ã¢
Ġcheek s
Ġapplaud ed
Ġga ze
Ġquack ed
Ġdire ction
Ġpadd led
ĠSus an
Ġgle e
Ġmater i
udolp h
O r
T ime
d am
o d
o ed
v in
Ġw edding
it ion
Ġl ung
il ed
id ers
Ġk ites
Ġloo se
ĠJ ay
Ġstart led
ĠE njoy
ĠF elix
Ġsl apped
ish y
ak y
Ġstr ings
Ġra indrop
Åĵ Look
Ġlet Ã¢
Ġbed s
ĠR udolph
Ġpat ted
Ġpro ject
Ġreach ing
Ġexp ected
Ġdes er
Ġflag s
Ġfill ing
Ġlollipop s
Ġpil es
Ġticket s
Ġtomato es
ĠUn fortunately
Mr s
Ġsque aled
anna h
ĠJe ff
Ġhoriz on
? '
B u
B obby
S ome
Y e
m elon
r is
Ġ Once
Ġw reck
Ġhe el
Ġp iggy
ĠS anta
Ġr ipe
Ġst are
Ġpl enty
Ġyou nger
ĠM el
Ġsp iders
Ġfa ced
ĠL izzie
ĠD id
ist en
ĠF ar
Ġwater melon
Ġdan cers
Ġbed time
Ġwr ites
Ġclos es
Ġus ual
Ġyell ing
Ġsweet s
Ġcut s
Ġpretend s
Ġfair ies
Ġansw ers
Ġact ed
Ġkick ing
Ġintere sted
Ġtick led
aff es
Ġgir affes
ĠSu zie
Ġbur row
Ġur ged
ĠKat ie
Ġgrocer ies
M aggie
a by
o h
r ance
y an
Ġ Yes
Ġf art
Ġc ent
Ġc aused
Ġl ower
ri p
ĠB ird
ĠĊ Ġ
ur ry
ĠA unt
Ġle ap
Ġsome body
Ġch ips
Ġevery body
Ġwat ches
Åĵ Why
Ġun f
Ġown ers
Ġsing er
Ġpart ic
Ġcreat ing
Ġsign ed
Ġbott les
Ġneighb ors
Ġinv iting
Ġprotect ing
Ġglass es
Ġtick le
Ġsugg est
Ġlead er
Ġlean ing
Ġincl ude
Ġinsect s
Ġcomplain ing
Ġbalan cing
ĠFo llow
low ly
Ġflutter ing
ĠKat y
Ġdire ct
Ġrust ling
Ġdrift ed
ĠLu ke
Ġvent ured
Ġspaces hip
A b
g o
g ers
n e
Ġt i
Ġa st
Ġw ound
Ġd en
ĠT wo
ay la
Ġbe ard
ri ous
Ġpl ucked
ĠB ongo
ĠM oo
Ġse ven
Ġsc aring
ĠW igg
Ġfa ult
Ġgood night
ĠL izzy
ĠL uckily
Ġpe ars
Ġpu pp
Ġsor ted
Ġcom m
Ġsn ail
ĠC ar
Th ose
Ġwr itten
Ġrepl aced
Ġrain co
Ġlisten s
Ġyell s
Ġcont est
Ġmon sters
Ġprin ted
Ġtall est
av i
Ġwasn Ã¢
ĠK ing
Ġmark er
Ġact ions
Ġgather ing
Ġprotect ed
Ġcand ies
Ġmask s
Ġaw ake
ĠBu zzy
Ġstrugg le
ĠAl i
ÅĵYou Ã¢
Ġconf l
Ġintroduc ed
B ad
a ired
b el
d ies
e ke
u bb
Ġt iss
Ġc ough
Ġd ared
Ġd aring
Ġm oo
ar ter
at ur
ĠS que
or med
Ġin sp
Ġr isk
ad es
Ġre ason
ĠM on
Ġsm arter
riend s
op s
Ġsc ales
Ġro bb
Ġch uck
Ġfl ight
Ġcat ches
Ġsl am
Ġsn uck
ac y
Ġwait er
ĠG ina
ĠN an
umb ling
Ġent rance
Ġrep aired
ĠRe member
Ġwhisp ers
Ġpray er
Ġaw o
Ġcrack ed
How ever
ĠMar ie
ĠSp ark
ĠDan ny
ĠAb i
Ġprett iest
R o
a bby
f ly
y ond
z en
he ll
Ġt igers
Ġt angled
Ġd ipped
Ġd ais
Ġwas ted
Ġm es
Ġth reat
Ġbe yond
Ġr ising
Ġtheir s
ic a
Ġback ed
?" ,
op es
Ġno on
Ġsw irl
ess ie
Ġhand ful
oy s
ĠP ip
ĠG et
Ġcr umbs
Ġdark er
Ġgrow ls
Ġdragon s
Ġheal th
Ġspread ing
Ġsplas hes
Ġrec ipe
Good bye
Ġdecor ating
Ġfold ing
ĠLe ave
Ġdeterm ination
Ġsquare s
Ġtrick y
Ġimpro ved
.. .
Un fortunately
Ġtravell ed
Ġaccomplish ment
Ġraindrop s
Ġpartic ular
ĠWigg ly
Ġtiss ue
Ġdais ies
Ġmes mer
- -
W h
e al
m pt
n ers
r atul
Ġl ined
Ġr out
un ched
Ġgo bbled
Ġsp arrow
ong ratul
ĠJack ie
Ġsn akes
Åĵ Mommy
Ġwind y
Ġcolor ed
Ġhead ing
ath y
Ġstick ing
Ġopen ing
ul u
ĠO ut
Ġhon k
Ġsal ty
To by
ĠFin n
Ġsurf ing
Ġprov ided
Ġstud ents
Ġbur st
Ġsaus ages
ĠJu dy
Ġseas hell
Ġinclud ed
Ġstro ll
ĠNot hing
Ġheav ier
ĠPrin cess
ĠFar mer
A n
D uring
E llie
l ings
l ves
Ġa ff
Ġs ense
Ġm ittens
ll en
ent ly
ĠM artha
Ġgo als
Ġfe ars
Ġro ses
as hed
Ġch op
ep t
Ġsw ept
ara c
Ġneed les
Th omas
th ough
Ġrain y
Jo sh
Ġus es
Ġcho ices
Ġforget ting
Ġexp ress
Ġsu itc
Ġmat ching
ĠWith out
Ġkick s
ĠCh loe
Ġtrip s
Ġcelebr ating
ĠSt ella
ĠBe ing
Ġcop y
ĠZ ip
ĠZ oom
Ġunpack ed
ĠAl ways
Ġwigg le
Ġflav ors
Ġsew ing
allow een
Ye ah
Ġfart her
Ġrainco at
Ġconfl ict
Ġchuck led
F ine
L illy
M illie
R uby
U h
W he
c l
m ies
p er
t le
Ġc ause
ar ling
Ġn ur
im mer
ĠH alloween
pp ers
Ġplay ers
ĠB ir
ĠB inky
ĠM any
ĠJ acob
dd led
Ġfa ct
Ġch arac
ĠE va
Ġlearn s
Ġtra ctor
Ġru ining
Ġrest ored
Ġam ong
Ġfro zen
ul ts
Ġbow s
Ġcreat ivity
Ġpol ar
Ġriver s
Ġmiss es
Ġpass en
Ġroad s
iv ia
Me ow
Ġreward ed
cu se
Ġcompl ained
Ġbreat hed
Ġsecond s
Ġachie ved
Ġexplorer s
ĠSad ly
Ġforgi ven
Ġwid ened
Ġdirect ions
Ġcharac ter
Q ue
T ina
e ars
h il
n o
u ly
u zzy
z es
Ġ ĠĊ
Ġf ara
Ġd et
Ġd arling
er n
ĠT am
Ġe arn
Ġbe lly
Ġr ings
Ġr opes
ri ver
Ġwe eke
ch oo
all owed
Ġlo sing
Ġbo dies
Ġsp ike
um ents
Ġman e
Ġfl ames
ĠE arth
Ġsw allowed
Ġpe ck
Ġpu ff
ĠJo jo
Ġcu bs
Ġwr ist
Ġde al
Ġru bs
Ġar r
Ġbit s
Ġsweet est
Ġcre ations
Ġdri ves
Ġplan s
Ġshap ed
br ush
Ġspoon ful
ĠThank s
Ġmail ed
Ġrep ly
Ġspe aking
Ġexam ined
ĠZ ero
Gra ce
Ġfork s
Ġcudd ly
Re x
Ġneat ly
Ġexper ien
Ġpad dle
Ġsandcast les
Ġminer als
Ġdiscu ssed
Ġsprink led
ĠMay a
Ġweep ing
Ġhesit ant
Ġhesit ated
Ġaccompl ished
ik i
Le o
Ex cuse
Ġpout ed
Mar ia
Que en
Ġfara way
Ġweeke nd
B et
B un
G reat
H ave
J ames
M imi
N emo
i xture
Ġc or
Ġc ongratul
Ġl imes
Ġm aker
Ġm ixture
ĠT illy
Ġg ap
id s
Ġe ch
ig ger
Ġst ung
Ġst ern
Ġhis sed
ad s
el ing
ĠB ig
ĠB ye
ĠB onnie
itt ed
Ġli qu
ĠM aisy
Ġlo gs
Ġme als
ĠE ls
Ġpe ppers
Ġsk ill
Ġsn ugg
Ġte mpt
ĠC ra
ĠC indy
Åĵ Do
Ġfood s
Ġun s
Ġun ited
Ġafter wards
ĠR yan
Ġam ount
Ġbeh avi
Ġprom ises
Ġcra shing
ĠThat Ã¢
Ġpol itely
Ġplan ning
Ġpro ve
Ġcup cakes
Ġstreet s
Ġshop s
Ġact iv
Ġhope ful
Ġshr inking
Ġwip es
Ġfis hes
Ġbatter ies
Ġtoast er
Ġpump kins
Ġdeliver ed
Ġresist ed
Ġsupport ed
Ġsepar ated
Ġrequ ested
ĠFo x
Ġsuffer ing
Ġpur r
Ġsport s
Ann ie
Tweet y
Ġrust y
ĠSad ie
Ġcal med
Ġdam age
Ġres ult
ĠSqu irrel
Ġann oy
Ġcott age
Ġcous in
Ġsnowball s
Ġawo ke
Ġactiv ities
B ear
D ays
P at
P enny
P aul
T ony
d river
i as
o or
o ssible
u bbed
Ġs ib
Ġw ow
Ġto uc
Ġb om
Ġwa ddled
Ġm erry
ĠT ess
Ġo pp
Ġth ird
Ġr ott
Ġthat Ã¢
Ġwe pt
Ġwe ars
ĠB y
ĠM ichael
ide y
ĠA nt
Ġback wards
Ġcan s
Ġcl ick
Ġhome work
ĠL ulu
Ġwill ing
Ġtr uly
Ġad ult
Ġbra very
Åĵ Wow
Ġimp ossible
Ġcon vers
Ġcolor ing
ĠR ain
Ġsqu ishy
Ġhair d
Ġdraw s
Ġhid es
ang ing
Ġpot s
Ġheal ed
Ġrem ote
ĠO wl
Ġpeace fully
Bob o
Ġdes ert
Ġcross ing
Ġchocol ates
Ġscr ubbed
Ġpay ing
ĠBa a
Ġlead s
Ġlead ing
Ġarg ument
ĠDave y
Ġknock s
Ġscrew driver
Ġwire s
Ġfiref ight
Ġwarn ings
Fr ank
Ġfreed om
ĠAmel ia
Ġmonth s
Ġrott en
B aby
D ucky
F or
c us
e eling
f ound
l ue
u rious
v est
w he
y es
Ġw ink
Ġb ak
Ġh i
Ġf ant
Ġl amb
Ġd ots
Ġp ins
Ġg ross
en ces
Ġn u
ĠS un
ĠS orry
Ġbe ads
Ġso bbed
nt il
ad die
un ity
ĠB ow
ĠB ee
ĠB ecause
Ġli ed
Ġsh oo
Ġre fu
Ġre app
Ġas ide
Ġare n
Ġal ien
Ġco sy
Ġfl ipped
ĠD ot
bb ly
Ġpe as
Ġpe cked
Ġtr amp
Ġtw ice
ĠEvery body
Ġsn at
Ġte ased
ĠR ay
ĠR icky
ĠJane y
Ġdro pping
Ġmus cle
Ġsnow men
Ġgrow l
Ġroll s
Ġremember ing
Ġbee h
Ġfit s
Ġatt ack
Ġwra pping
Ġpray ing
Ġlem ons
Ġwander ing
oph ia
Ġref le
Ġsnee zing
Ġgun s
Ġsil ence
Ġstat ues
Ġcur ly
Ġbackpack s
Ġmushroom s
Ġappreci ation
Ġitch y
Ġrefre shing
ĠFo xy
Ġinstr uments
Ġseas on
Ġfamil iar
ĠOl ivia
Sad ly
Ġbeha ved
Ġbegin ning
Ġslam med
Ġaff ord
Ġsuitc ase
Ġliqu id
Ġsib lings
Ġfant astic
E w
M iss
M ira
k y
Ċ Ċ
Ġto ssed
re ct
ou ch
er k
Ġn ine
or a
or ds
on ny
Ġth ro
es ome
am ing
Ġr umble
Ġso fter
st y
Ġdo d
al ph
Ġne ct
Ġnot es
Ġsp ed
Ġcl erk
ell e
Ġch oo
ĠF uzzy
Ġthought s
Ġfo cus
Åĵ Come
Ġstay s
ob ody
Ġbad ge
ress er
Ġsmile y
ĠP l
Ġhands ome
Ġde f
Ġdress er
Ġblock ed
Ġtri cked
Ġlight er
Ġhid er
ĠK ayla
Ġgu est
Ġbel ts
Ġdist ract
Ġrep ort
Ġdi ving
Ġbat hing
Ġnervous ly
Ġscar ves
ĠBe cky
Ġwrap s
Ġadd ing
ĠU ntil
Ġstack ed
Ġencou rag
Ġavo id
Ġvide os
Ġmagnet s
ĠPat ch
Ġcountry side
Ġdelay ed
Ġrespons ib
low ers
Ġflutter ed
Ġprop er
Ġincre ased
Ġrecommend ed
Ġpunish ment
ĠLiz a
ĠFro ggy
Ġ1 0
Ġdeser ve
Ġti pt
Ġcongratul ated
Ġhaird resser
Ġbak ery
Ġbeeh ive
Ġrefle ction
Ġthro at
Ġnect ar
B ill
O ur
O ops
R ose
T ed
c ited
m unk
w e
w hile
Ġh our
it ched
Ġc oup
Ġc oral
Ġl un
Ġhe n
Ġhe aring
ĠT iny
ĠS lowly
an while
on na
Ġe ase
Ġon ward
Ġwe eds
ĠB er
Ġbo nd
Ġhelp ers
are n
Ġsc ored
ick ie
ie ce
Ġco nd
Ġnew found
Ġch os
ĠE l
Ġkne es
bb ing
ĠF riends
Ġtr ot
Ġsl ither
Ġsl ices
Ġsk unk
ion a
Ġjo king
me al
ast y
be e
ĠTh ose
Ġdraw ers
ĠDo g
Ġel f
ol ine
Ġcream y
Ġsister s
ment s
Ġdi ved
Ġtool box
Ġimag ining
Ġpolice man
Ġwis hing
Ġcover s
Ġaw esome
Ġfrown s
ĠU p
Ġtemp er
Ġseem s
Ġsend ing
Ġghost s
Ġdisplay ed
Ġhall way
Ġsuperhero es
Ġexerc ises
Ġtwink le
Ġsneak y
Ġtremb led
Sh h
rr r
Ġoat meal
Ġchip munk
Ġmesmer ized
Ġpassen gers
Ġtramp oline
Ġchos en
C laire
F in
R un
a a
c oon
c ope
i bbit
w eed
Ġto dd
Ġh itting
Ġwa g
Ġl ent
Ġm ood
Ġm unch
Ġm aster
ĠT ara
ĠT una
Ġn asty
or i
on i
ĠH oney
Ġu nd
ĠA dam
Ġsc amp
Ġpr un
ĠE x
Ġdad s
Ġyour selves
Ġover come
Ġexpl od
ĠAnna bel
Åĵ Okay
Ġun fortunately
Ġdis ob
Ġde fe
Ġtow ard
Ġru le
ĠN obody
ĠJohn son
Ġcurious ly
ĠK iki
ott e
Ġpot ion
em ma
Ġsea weed
Ġbus iness
Ġcorn ers
Ġlift s
Ġpop s
ĠO w
ĠGo ld
Ġspe ars
Ġgas p
Ġsour ce
Ġfeed ing
Ġseek er
Ġpri ck
Me anwhile
arl otte
Ġscrat ches
Ġshark s
ĠBet ty
Ġdesign ed
Ġdust y
Ġsurround ings
Ġbri cks
ĠLou ise
Ġprett ier
Ġgrant ed
Ġscra ped
Ġconn ect
ĠMe g
Ġinsp ired
Ġrout ine
Whe e
Ġsnat ched
B oo
B ack
G ina
b ro
e bs
t uce
w hat
x op
Ġ 2
Ġ X
re es
it a
Ġhe ight
Ġm el
ĠT ake
Ġo h
Ġg onna
Ġsa xop
ĠS id
ĠS atur
am ma
Ġst itch
ad os
st ep
ĠB ert
Ġsh own
se qu
Ġne are
Ġne ither
ĠM ina
Ġsp ices
Ġkn ots
Ġno ses
Ġsc ient
Ġman ag
Ġme mb
ĠW ater
Ġag e
Ġch anging
Ġgood ies
ĠMom ma
Ġpo ster
Åĵ But
Åĵ Please
Ġwo bbled
Ġlet tuce
Ġcon cer
Ġcon sequ
Ġru shing
Ġsqu in
us hed
Ġtri cy
Ġslow er
Ġwon Ã¢
Ġheart bro
Ġstand s
Ġresp ond
oun ce
Ġgigg les
Ġdes pite
Ġpuzz led
Ġpath s
Ġhum ming
Ġhum ans
Ġvan illa
ĠOn ly
Ġpray ers
Ġswan s
Ġtask s
Ġsil ent
Ġdeliver ing
ye ars
Ġcobw ebs
Ġaeropl anes
Ġfu zzy
Ġtwink led
Ġart ist
Ġstro ked
Ġseagull s
amb i
ĠGood bye
Al right
ĠOl ive
Ġtalent ed
Ġgreet ed
Ġflas hing
Cl ara
Ġcustom ers
Ġmateri al
Ġcor rect
Ġconvers ation
Ġtipt oed
Ġlun gs
Ġtodd ler
Ġsaxop hone
ĠSatur day
Ġscient ist
Ġtricy cle
Ġheartbro ken
B lue
E ven
F red
K im
L ena
R osie
S andy
W oof
Y ummy
b and
n k
r ig
u pt
v ant
Ġ Queen
Ġa is
Ġw ins
Ġb less
Ġb uddy
Ġp ens
ĠT y
Ġsa nk
or ation
Ġth ud
es pite
Ġr ip
pp a
Ġpl ain
st ick
Ġplay time
Ġfor m
ĠB ad
Ġre ass
Ġsp ills
ind a
Ġle ast
Ġsc ut
Ġch illy
Ġthan king
ĠD r
Ġpo kes
Ġta pped
Ġta pping
Ġtr ans
Ġsl ed
Ġend s
Ġcle ared
Ġra cc
Ġgarden er
Ġfin al
Ġcon qu
Ġsto pping
Ġdoor way
Ġwr igg
Ġthr own
ĠP urple
Ġgrass y
Ġste ady
Ġthrough out
ren ch
Ġtight er
Ġlesson s
Ġdream t
Ġsail ors
Ġpaint brush
Ġdragon fly
Ġneighb ours
Ġbowl s
oun ced
Ġwhist les
ĠO ur
ĠJen nie
Ġmatter s
ĠCh ickie
Ġpan s
Ġshr ug
Ġcalm ly
ĠSt art
Ġfigure s
Ġexam ining
Ġwip ing
Ġfrown ing
Ġstream ers
Ġscrat ching
Ġsurf board
Ġrepe ating
Ġprep aring
Ġbul bs
Ġpengu ins
Ġperform ance
Ġbreat hing
Ġenthus ias
Ġbuzz ed
Ġstom ped
Ġavoc ados
ĠJess ica
Ġbother ed
Ġrot ting
ĠRo xy
Ġcub es
ĠJe an
Dan ny
ĠQuack ers
Ġsweat ers
Kat ie
Ġty pe
Ġconn ected
Ġcent er
Ab igail
ĠSque aky
immer ing
ĠBir thday
Ġcharacter s
Ġnu zz
ĠSun shine
Ġencourag ing
Ġresponsib ility
Ġtemper ature
Ġscamp ered
Ġprun es
Ġexplod ed
Ġprick ly
rig ued
Ġtrans f
Ġracc oon
Ġenthusias m
B y
B unny
D ear
D avid
M el
P e
T r
b u
c row
f all
f ire
i bble
n ow
w orm
Ë ľ
Ġa ud
Ġw rench
Ġh us
Ġf aded
Ġc oug
Ġd ep
Ġd ip
Ġp ound
ĠT erry
Ġn apping
Ġsa le
ĠS leep
im ent
an a
an c
an ny
ver al
ĠM il
Ġse veral
ĠA ny
Ġcl ues
âĤ¬ Ëľ
Ġla ces
ĠL ove
Ġfl own
ist ory
Ġgra ndp
ret ty
Ġhand ing
Ġwater ing
Ġoff ic
Ġunt ied
Ġfo cu
Ġbra vest
Ġdon key
Åĵ Hey
Åĵ My
Ġwo bble
Ġfin ishing
Ġstor ed
so l
Ġdoll house
ĠP inky
ĠP hil
ĠR ock
ĠN ick
itc hes
Ġcre w
Ġprin ting
Ġtast ing
Ġpart ies
Ġsees aw
Ġcra ft
Ġread s
Ġperf ormed
Ġmus cles
Ġtalk s
Ġnap kins
Ġqui eter
Ġbel oved
Ġcloud y
Ġcho pped
Ġwouldn Ã¢
Ġve gg
Ġyoung est
Ġlift ing
Ġpast ries
ere my
Ġtrouble s
Ġhon ked
Ġtidy ing
Ġbat tle
Ġdrive way
Ġrobot s
Ġind eed
Ġtest ing
Ġrocket s
Ġtwist y
Ġgar b
Ġterri fied
Ġcover ing
aw k
Ġswe ep
Ġcudd les
Ġunl o
Ġgrace fully
Ġtunn els
Ġgrand d
Ġmagn if
Ġloop s
Ġblin king
Ġmagaz ines
Ġstud ent
Ġlend ing
Qu ick
Ġdiscuss ing
Ġpoem s
ĠFro sty
Ġpupil s
Ġdam aged
Ġoutfit s
Ġthorn s
Ġleap t
Ġsuggest ion
Ġrisk s
Ġparticular ly
Ġarr anged
Ġexperien ced
ĠCra bby
Ġaud ience
Ġhus band
Ġgrandp arent
Ġfocu sed
Ġvegg ies
B uddy
K ate
R achel
S u
a ven
c ou
h nn
l ied
o pper
p en
v ie
Ġt ing
Ġt il
Ġb ison
in itely
Ġh oo
er m
ĠT aking
Ġn ibble
ĠS ophia
le ts
ck er
ig ning
ad ing
el vet
ĠB essie
Ġre un
ĠM o
ĠM acy
Ġsp ook
Ġbr u
ĠW ell
ĠW atch
Ġtre ated
Ġch arge
Ġfl ip
ĠD uck
bb ling
Ġsl ips
ĠJack y
Ġsn ug
ĠJo an
Åĵ Hi
Åĵ Well
Ġcon s
Ġdra wn
Ġun w
Ġwr ink
Ġnear ly
ĠG abby
Ġac he
Ġstrong est
Ġsound ly
Ġbit ing
Ġsmell ing
bo ards
ĠK elly
Ġfox es
ĠFl ash
ĠFl oppy
Ġexp ert
Ġcow b
Ġstar fish
Ġact ivity
ĠCh ip
Ġsupp lied
Ġval ued
Ġembarra ss
Ġbreath s
Ġgener osity
Ġjacket s
Ġord ers
Ġtwist ing
Ġknight s
Ġhelmet s
Ġscare crow
ĠPe ppa
Ġsymbol s
Ġtravel s
Ġped aled
Ġmay or
Ġcamp fire
Ġprov iding
Ġbrus hing
Ġstrip s
Ġbur nt
Ġyield ed
Ġquarrel ing
ron aut
Ġoffer ing
ab el
Ġadmir ation
Tweet ie
ĠCo co
ĠCo pper
pe cker
Ġtravell ing
Ġsway ing
Ġty p
Ġseashell s
Ġuns ure
ĠDot ty
Ġdistract ed
Ġcoup le
Ġtrot ted
Ġconsequ ences
Ġgarb age
hnn ie
Ġspook y
J azz
K eep
L ike
L isten
M illy
b ut
i ving
m ates
Ġ Oh
Ġt ipped
Ġt umbled
Ġw ider
in t
Ġwa kes
Ġm er
ĠT ry
Ġo cc
Ġg erm
Ġn ibb
Ġsa dd
ĠS im
on se
ld y
Ġr ather
Ġst ain
ĠI zzy
Ġup side
end y
Ġre bu
ĠM addie
Ġsp at
Ġdec l
ĠL arry
uck er
Ġbl ast
ĠF ly
Ġpe ak
Ġsl ipping
Ġqu e
ort unately
Ġte aring
Åĵ Where
Ġwo bbly
Ġgl ued
Ġclean er
Ġdoll ars
ĠP am
ĠP ipp
Ġrain s
ĠG ary
ĠR uth
ĠR ubb
ĠR alph
Ġsqu ished
Ġblock ing
Ġlea king
Ġfire s
Ġwood pecker
Ġpoin ty
Ġgrow s
Ġbelie ving
Ġspr ang
Ġmark ing
Ġdry er
Ġresp onse
Ġmil es
Ġboun ces
ĠO ther
Ġcheer fully
Ġsur v
Ġdecor ation
ĠSt ay
Ġscr am
Ġspoil ing
Ġborrow ed
Ġdiscover ies
Ġturt les
Ġspell s
ĠPe pper
ipp ers
Ġmis chie
Ġcrawl s
Ġbump s
Ġtriang les
Ġperm itted
Ġperform ing
Ġarrow s
Ch ris
Ġpost man
Ġluck ily
ĠRo ger
Ġflap s
ĠFro g
Ġlick ing
Ġspit s
Ġinch worm
Ġobey ed
ais ie
Ġyum m
Ġscra pe
Ġcustom er
Ġmateri als
Ġast on
Ġast ronaut
Ġwound s
Ġpupp ies
Ġrobb ers
Ġexpress ion
Ġforgiven ess
Ġdet ail
Ġbehavi or
Ġbom b
Ġopp ort
Ġdef initely
ĠEl iz
Ġscut t
Ġgrandd aughter
Ġreun ited
Ġmischie vous
? !"
C ar
J amie
M att
N ever
P olly
T wo
W atch
c a
c ent
o ss
p it
u sed
y l
Ġs ill
Ġh ike
Ġd ing
er g
Ġm ate
ay e
ay ing
is c
id o
en ing
ĠS w
ĠS weet
ĠH enny
ĠH annah
Ġin j
Ġbe aming
st orm
Ġplay house
ch ild
Ġsh in
Ġsh ady
Ġwh ales
ĠM amma
ra nd
ra ce
Ġsp ies
Ġex h
Ġex cept
ic ious
Ġsc ri
Ġro ars
Ġag rees
âĤ¬ ,
Ġch anges
Ġgood by
Ġsw ords
Ġbl ond
Ġpo llen
Ġint rigued
Ġtw eet
urt le
Ġad ults
Åĵ Maybe
Åĵ Good
co vered
air y
Ġprin ts
Ġpart ed
Ġworry ing
Ġel bow
Ġjoy ful
ĠK eep
Ġvisit s
Ġvisit or
Ġbuck led
Ġforget s
Ġant ic
Ġaf ar
Ġdriver s
Ġpicnic s
Ġdes per
Ġlay ing
Ġban ged
ĠSt ar
ĠSt rip
St eve
ian a
Ġca w
Ġsell er
Ġpress es
Ġdiamond s
ĠFin ny
Ġbeet les
Ġgrand child
az ing
Ġscold s
Ġpassport s
Ġspeak er
Ġpant ry
ĠAl though
Ġplanet s
Ġweigh s
Ġsunf lowers
Ġdisturb ing
Ġvi br
Ġvehic les
Ġbother ing
Ġbury ing
asp er
ĠRo bbie
ab ly
ab eth
Ġstro ke
Ġsimp ly
Ġscur ry
Ġautomob iles
ĠV elvet
Ġglitter y
Ġeffort s
Fr eddy
Ġpeel ed
Ġswims uit
ĠHoot ie
Ġpupp et
cl oth
Ġech oed
ĠEls ie
Ġannoy ed
Ġtouc hes
Ġfirefight er
Ġslither ed
Ġdisob ey
Ġwrigg led
anc is
ĠRubb er
Ġscram bled
Ġopport unity
Ġgoodby es
A dam
A rrr
C he
C indy
F o
J e
R uth
V room
b elt
b ird
c ake
c ul
i ens
p lease
t he
t to
u lp
w ise
Ġ 9
Ġ icing
Ġa imed
Ġs ou
Ġs ens
Ġto pp
it ude
Ġwas ting
Ġp uck
Ġp ace
ĠT ime
at ty
en n
or ter
or der
oo king
Ġr in
Ġwith in
Ġhis sing
Ġre act
ĠM aisie
Ġgirl Ã¢
Ġsp ong
Ġex ch
ĠA g
ĠA sh
ĠJ onny
Ġkn ives
Ġal iens
Ġsc ulp
Ġfe ver
ĠW endy
dd ing
ĠBut ter
Ġwho se
ĠL ion
Ġsw ap
ĠD espite
bb a
Ġpo ss
Ġsk ies
Ġtw in
Ġqu ilt
Ġexpl oration
Ġte les
ĠC olin
Åĵ Sure
Yes terday
sh irt
th a
Ġclimb er
Ġthr one
ĠP uff
Ġdis cou
Ġde ars
Ġdress ing
ng el
Ġhop s
Ġdr own
Ġz ipping
Ġunderstand s
Ġmar ve
Ġcount s
Ġsail s
Ġele ct
Ġvisit ors
Ġgu ide
Ġinst antly
ĠFl ora
Ġteacher s
Ġbath s
ĠO tto
Ġband ages
ĠCh arlotte
ert ain
Ġpan icked
Ġseat belt
Ġser ving
Ġser vant
Ġzoo keeper
Ġsel f
Ġmind s
Ġsuccess fully
Ġclass mates
Ġwis ely
Ġaw ful
Ġrubb ish
Ġload ing
und red
Ġrepe ats
Ġang els
Ġhero es
Ġpige ons
Ġknock ing
isk y
Ġyawn ing
io let
Ġrepair man
Ġthread s
Ġappreci ated
Ġnewsp apers
ĠWh ite
Ġstom p
Qu ack
Ġrever sed
Ġprevent ed
Ġflood ed
ib it
ĠCat ie
ĠRo ver
.. ."
Ġfascin ating
Ġwhisper ing
Ġbend s
Ġpadd ling
Ġsiren s
Ġfiref ly
ĠJan ie
Ġspill ing
Ġchef s
Kat y
Ġfirm ly
ĠAmel i
Ġrobb er
ĠSpark y
Ro ar
Ġearn ed
Ġsnugg le
Ġdefe ated
Ġsquin ted
Ġcorrect ly
Ġais le
Ġreass ured
Ġconqu ered
Ġnuzz led
Ġoffic ers
Ġmer ma
Ġocc as
Ġdecl ared
Ġaston ished
oss om
Ġmate y
isc uit
Ġexh ibit
Ġsculp ture
Ġteles cope
! '.
1 1
A m
A bby
G abby
M on
M ickey
O llie
S urpr
S ince
V ery
c at
d ges
f illed
i el
l t
l os
o llen
r ons
s ie
s ery
w k
Ġ Okay
Ġt uck
Ġa ctor
Ġh undred
it er
Ġc au
Ġhe aven
Ġd ie
Ġd ate
Ġd arl
Ġm ac
Ġp oop
ĠT ucker
ĠT urtle
Ġg est
Ġg ears
at ive
Ġn ood
Ġsa v
Ġha wk
ĠS ay
ĠS and
ĠH istory
ĠH opper
Ġin ter
ut ter
oo ke
ig hing
Ġr oo
Ġr ips
Ġr umbling
Ġso aking
Ġhis s
ri er
Ġpl o
Ġpl umber
ad ually
ĠB arry
ĠB ambi
itt ered
Ġsh h
Ġsh orter
Ġk ings
Ġnot icing
ĠM a
ĠM s
Ġsm ashed
Ġsp ins
Ġsp ee
ĠA bbie
ĠA ngel
Ġall erg
Ġno dding
Ġsc en
Ġsc ener
Ġman ners
Ġbr ide
ĠW illie
Ġbird y
Ġbird house
Ġpr ob
Ġch atter
ss y
ĠL ooking
Ġsw ollen
Ġbl own
Ġbl ushed
ap s
ant ha
ĠF aye
Ġsun sc
Ġwater s
ace y
Ġpret z
ile y
Ġstr um
Ġunt ie
Ġche cks
Ġra king
Åĵ Mom
Åĵ Be
Åĵ Who
Åĵ Ok
Ġwo lves
When ever
ip ation
Ġcon vin
Ġwr iter
ĠP oor
Ġforest s
ĠN ever
Ġwarm er
iss a
Ġste er
Ġsand y
Ġmess es
Ġdri pping
Ġfloor s
Ġbow ing
Ġhot ter
lf ie
Ġcount ries
Ġpro d
Ġact ive
Ġact ion
Ġwar ri
Ġpres chool
Ġrespect ed
Ġanswer ing
Ġap rons
Ġcart s
ony a
Ġremind s
Ġign oring
Ġple as
ĠBr ooke
Ġaunt ie
Ġpress ing
Ġed ges
Ġtire s
Ġapolog ised
Ġgoat s
Ġbrace lets
Ġenc los
ĠSp e
ĠSp idey
Ġcush ions
ĠFr ancis
Ġscatter ing
Ġhook s
Ġsuit s
Ġdesign s
Ġgem s
Ġmill ion
uct or
Ch loe
Ġtub es
Ġuniform s
Ġwigg ly
ĠTr ust
Ġsque aked
Ġrow s
ĠIs n
ĠIs la
Ġsew ed
ĠQu ick
Ġcal ming
Le ave
Ġforgi ving
Ġchat ted
Ġbeha ving
Some one
Ġnur ses
Ġnur sery
Bet sy
Ġdod ged
Ġguest s
Ġcond uctor
Ġmunch ing
Ġpops ic
Ġmanag er
Ġconcer t
Ġrespond ed
Ġtransf ormed
Ġcoug hed
ĠSleep y
Ġgrandparent s
Ġtil ted
Ġcons ider
Ġsadd er
Ġque ens
Ġsurv ive
Ġastronaut s
Ġscutt led
Ġblond e
Ġantic ipation
Ġvibr ant
Ġspong e
Ġdiscou raged
Ġcau sing
Ġdarl ings
Ġspee ch
Ġscener y
Ġprob ably
Ġsunsc reen
Ġenclos ure
, '
A ny
F eeling
H E
H annah
H urry
M ila
M ina
P ut
R ed
S unny
b ie
c r
f l
i al
i ppy
l ers
l ine
m ered
m allow
p o
s he
t ment
v on
w ell
Ġ 4
Ġ ouch
Ġb ound
re nt
Ġm arsh
Ġp urp
Ġp ours
ĠT e
Ġg ri
Ġg azing
il ities
at a
at ors
Ġth ie
ĠH old
ot ch
Ġe m
Ġe v
Ġbe ast
Ġst inky
Ġpl ug
Ġpl ugged
Ġmom mies
Ġsh ines
Ġwh imp
Ġk ittens
Ġk etch
ĠM ake
Ġsm elt
Ġsp are
ĠJ ax
ĠJ ul
op ed
Ġsc ent
ĠW in
dd ie
Ġfa ith
Ġfa iled
ag ic
ĠL ions
ĠL isten
ĠE at
Ġgra bbing
ĠF iona
Ġpo ses
Ġint ently
Ġrun ner
Ġsmall est
Ġfo nd
Ġsn ort
Ġche ers
ĠC r
ĠC athy
Ġloud est
Åĵ The
sh aped
Ġgl ided
Ġgl immering
Ġgl ittered
Ġcon cent
Ġwind s
Ġsure ly
Ġmean ing
Ġsqu ir
Ġnight s
Ġwarm ly
Ġflo ats
Ġsoft ened
uff in
Ġmagic ian
Ġslow ed
Ġcold er
Ġtable s
ugg ing
Ġtail s
Ġgu ards
Ġpro g
Ġjob s
Ġjoin ing
Ġplant ing
ord inary
Ġcour t
Ġbus es
Ġbush y
Ġret ri
Ġrec order
ÅĵI f
Ġdi aper
Ġshr unk
Ġcoo p
Ġremind ing
Ġrob in
Ġmotor b
ĠDon Ã¢
Ġeld er
Ġcap ture
Ġeng ines
Ġstamp ed
ĠZ ara
Ġlow ered
fa ction
Ġsquee zes
ud ged
Ġmosquito es
Ġscare s
ĠU nder
Ġspell ing
Ġenv iron
Ġsne aking
Ġgrand son
Ġspeed ing
Ġiron ing
Ġsuff ered
Ġsque ak
Ġornam ents
Ġcontain er
Ġsatis faction
ĠFrank ie
Sad ie
Ġcott on
ĠCar la
ĠSque ak
Wh ich
Ġtempt ation
Ġpurr s
ĠRain bow
Ġreapp eared
ĠBer tha
Ġneare st
ĠStart led
Tr ue
Ġmagnif ying
Ġgerm s
enn is
Ġelect ric
Ġoccas ion
Ġgest ure
Ġconvin ced
ĠSpe edy
mallow s
von ne
Ġmarsh mallows
Ġthie ves
Ġketch up
Ġconcent r
Ġenviron ment
C urious
D anger
J u
J ump
J une
J acob
J essie
K ids
K aren
L ou
M oo
M ine
M ichael
O l
P l
R ory
b ell
d og
f ree
h ind
k a
l med
r ough
r up
t hat
u art
w ater
Â ¦
Ġ ill
Ġt in
Ġt um
Ġt ested
Ġto ss
Ġb itten
Ġd ot
Ġm end
Ġm unched
ĠT re
ĠT igger
ar oni
ing ly
is ions
Ġg e
Ġg oo
Ġg all
Ġg ates
Ġg rip
Ġn atur
an ced
ĠH olly
Ġr ats
Ġr ays
Ġst umble
ri et
Ġfor ce
Ġwh oo
Ġre cess
ĠM uffin
ra p
ter n
Ġlo cks
ec ca
Ġex amp
ĠA f
ic s
ic ate
Ġback s
Ġal though
Ġsc ience
get s
get ic
Ġfa cing
âĤ¬ Â¦
Ġco coon
Ġch ugged
Ġdec isions
Ġla va
ĠL a
ĠE ddie
ous y
ĠD ull
ĠD ee
ess a
ĠF eeling
Ġlook out
Ġpo sit
Ġpe ep
Ġtr aded
Ġtr ading
Ġsl apping
Ġover whe
Ġclo ak
Ġwater fall
Ġsn oring
ĠC he
ĠC ow
Åĵ Now
Åĵ See
ip es
Ġdoor bell
oy al
Ġadventure r
ac le
ĠP ippy
Ġfish y
ĠG low
Ġde ed
ĠR ory
ĠN ell
Ġsand pit
Ġsoft est
ĠDo ve
Jack y
ĠGra nd
Ġpet ting
em pt
Ġwelc oming
Ġpack ages
Ġben ches
Ġatt empt
ĠO ver
ĠO uch
Ġstorm s
Ġcomfort ing
Every day
Ġpresent ed
Ġcart whe
ĠSt e
Ġnet s
Ġcoo ed
Ġfold s
Ġpeaceful ness
Ġsal on
Ġspray s
Ġship s
Ġca ves
Be ep
Ġthick er
Ġwis er
Ġcontent ed
Ġpay s
Ġfill s
Ġteam work
ĠBa ldy
Ġcrown s
Ġaw hile
Ġcomb ed
ĠBu bba
Ġguess ing
Ġload s
Ġsy rup
Ġcro aked
Ġenc ount
ĠPe bby
Ġcur rent
Ġener g
Ġener getic
Ġsniff ing
Ġmill er
ĠSh adow
Ġunpack ing
Ġsheet s
Ġfreez ing
Ġbeep ed
Ġreinde ers
Ġsnap s
Ġkneel ing
Ġart work
Ġemer ged
Ġkay aking
Ġinstr ument
Ġrail s
Ġpalm s
Ġlangu ages
Ġsurrender ed
Al ways
Mike y
ik a
Ġconfident ly
Ġres ults
Ġtexture s
ĠCarl os
Ġsway ed
Ġann ounced
Ġcous ins
ĠBo bbie
Bu bbles
ĠAunt ie
ĠCar ly
Ġmoo ed
ĠNan a
Ġrefu se
Ġreapp ear
cited ly
ĠGold ie
Ġmel ons
step s
Ġmemb ers
ĠTy ler
sol ut
Ġtyp es
Ġrebu ild
Ġyumm iest
ĠEliz abeth
Ġscurry ing
Ġ9 11
Ġdrown ed
Ġmerma id
Surpr ise
Ġnood les
Ġroo ster
Ġplo pped
Ġallerg ic
Ġwarri or
Ġbound ed
Ġmotorb ike
Ġnatur al
Ġexamp le
Ġoverwhe lmed
0 0
B eth
C arl
D eal
J ess
J erry
L ucky
M o
P retty
S illy
S us
S lowly
T ake
Z ero
b it
c her
d a
e aring
h og
o ard
o cul
r um
v al
w en
y lves
Ġt ant
Ġt ying
Ġt umbling
Ġs ly
Ġs inking
Ġb ou
Ġc ertain
Ġd ou
Ġd ong
Ġd ump
Ġm itt
Ġm ast
Ġp urch
ĠT ia
at itude
Ġha ven
ĠS onya
an ion
Ġth umbs
ll e
ll as
ĠH ar
ĠH ug
es us
ig i
Ġr ack
Ġr owed
Ġr ibbit
Ġst itches
Ġhis ses
Ġmom Ã¢
Ġsh allow
Ġdo lly
all ed
Ġre v
ĠM ousy
Ġbo il
ill er
ĠA na
ĠA lfie
ain t
Ġall ey
ĠJ eremy
ight ing
Ġcl icked
op sy
Ġle vers
Ġsomet ime
Ġwor n
Ġwhat Ã¢
Ġco ach
ĠYou Ã¢
Ġch ill
ĠL inda
ĠL oyal
pl ash
qu et
ous ly
ust er
Ġcare s
Ġcare free
Ġab oard
ant ed
au la
Ġsl ug
Ġsl urp
Ġsk irts
Ġjo ked
Mom ma
Ġgr atitude
Ġjump er
Ġra ces
ĠC urious
Ġgarden s
Åĵ Of
ect ion
Ġsurpr ising
ip ed
Ġclean s
th s
ĠP en
ĠP ick
Ġclos ing
Ġbright est
ĠR an
Ġstore s
Ġhop sc
Ġz ips
Ġrest oring
Ġste w
Ġam used
uff ed
Ġsleep s
Ġcontin uing
Ġju ic
Ġju dges
Ġsnow fl
Ġfight s
Ġcomp anion
ĠK night
ĠK athy
ĠK aren
Ġpro ved
Ġcho pping
to ise
Ġfoot steps
ĠSt an
ĠSt itch
Ġchick s
Ġhum med
Be cky
Ġscr ub
Ġextra ordinary
ict or
Ġadd ress
Ġumbre llas
Re my
Ġsquee zing
Ġhunt ing
ĠPe ep
Ġmotorcy cles
Ġtor toise
Ġcrocod iles
Ġscoot ers
Ġlab els
Ġcompl iment
ric a
Ġsniff s
Ġthunder storm
Ch oo
Ġskelet ons
Ġscrew s
Ġshovel s
Ġobser ving
Ġer ase
Ġer upt
Ġtrave ling
Ġexplain s
Ġexplain ing
Ġinsist ing
Ġrever sing
Ġappl ause
Ġexerc ising
Ġbin ocul
ib ly
Ġlip stick
Ġpearl s
ĠRo sy
Ġsque al
Ġseas ons
Ġincre asing
Ġhesit ation
Jen na
Ġmeow ing
ĠCo coa
Ġpedal ing
Un cle
Ġglitter ing
Ġscoop s
Ġallow ing
ĠSus y
Ġachieve ment
Ġheav ily
Ġsweat y
Ġflas hed
Ġreveal ing
May a
Ġfact s
Ġech o
ĠEls a
Ġshoo ed
Ġattack ed
Ġgasp s
ĠMil o
Ġcraft s
Ġhoo ves
Car ly
Fo llow
Je ff
Ġexch ange
Ġmac aroni
Ġscen e
Ġconsider ate
Ġev il
Ġprog ress
Ġtum mies
ĠAf rica
ylves ter
Ġtant rum
Ġbou quet
Ġhopsc otch
Ġbinocul ars
' ,
A choo
B r
B oth
B ert
B oys
D ee
E l
J an
J oy
K ayla
M ove
N ice
O ut
R O
R icky
R ibbit
T ara
T HE
U sing
e w
g re
h ny
n ival
p ara
p ect
r ily
s a
s aw
v room
v ince
w are
Ã ĥ
Ġa im
Ġthe at
Ġb as
Ġb orn
Ġb aker
Ġh ood
Ġwa nna
Ġl ar
Ġl an
Ġd ashed
er ina
ĠT igers
id ence
at ild
Ġn apped
ĠS ylvester
im mered
on ed
on ies
ll ed
ĠH ope
ĠShe lly
am il
Ġr ink
ĠI m
Ġso da
st and
Ġwe ighing
el ope
un icate
ĠB ones
ĠB iff
Ġli es
Ġsh all
Ġsh ave
Ġsh uff
ĠM iller
ack s
Ġan ger
Ġlo c
Ġbo iled
ur f
ĠA r
ĠA cc
ĠJ esus
Ġcl ut
Ġfun n
are t
Ġle vel
Ġsc ree
ĠTom orrow
ĠW elcome
Ġcar ries
Ġcar nival
Ġch in
ĠL enny
ĠL acey
Ġfl ock
Ġfl ips
ĠE lly
Ġsw at
Ġsw oop
Ġsw itched
ous and
Ġbl amed
Ġbl ades
ap ot
Ġab and
Ġab ility
ĠF ido
Ġpo pping
ĠSam antha
Ġball erina
Ġen em
Ġcom mand
Ġunt angled
Ġjo ins
Ġte apot
ĠJo hnnie
urp hy
Ġgr ump
Ġgr umbled
Ġche aper
Ġbra ver
Ġra ising
ĠC le
Ġbeauti fully
Åĵ H
Åĵ Yay
Ġhard est
ople ts
Ġbad ger
Ġcon vince
ac les
ĠP er
Ġapp et
ĠG ray
ĠG emma
Ġde v
Ġde ck
Ġtal ents
Ġhead ache
ĠN ice
ĠN umber
Ġsqu awk
Ġcr isp
Ġforg ives
Ġdr oplets
Ġsweet ly
us a
Ġsing ers
Ġtri pping
Ġba it
Ġsoft ness
Ġtast iest
Ġmess ed
ĠIn ny
Ġdri pped
Ġmove ments
sp e
Ġtable t
Jack ie
ol by
os a
Ġcomp ete
Ġpoin ter
ĠTo dd
igg ie
Ġgrate fully
up ert
orm ation
ident s
ĠAll ie
em on
Ġcup cake
Ġalong side
ĠFl opsy
ĠEmma Ã¢
Ġinv ites
Ġneck s
Ġmilk sh
Ġbelong ings
Ġjourney s
ĠO ak
Ġreturn ing
Ġround ab
Ġfeather ed
Ġocean s
Ġlay er
Ġtid ied
Ġsol ving
Ġcoo per
Ġbell s
Ġtrust y
Ġdisappoin tment
Ġstuff ing
Ġmoon light
Ġhonest y
Ġfrustr ation
Ġtick ling
Ġboard ed
Ġteam s
erp iece
Ġpizz as
Ġrelax ing
Ġadd s
Ġtrap s
Ġguard ing
Ġhunt ers
Ġsupport ing
Ġweal th
Ġchar m
Ġquestion ed
Ġsle igh
Ġsniff led
Ġpand as
Ġmusician s
Ġinse para
ĠAl an
ĠAl ong
ĠPat ty
Ġairpl anes
Ġimpro ving
mand a
Ġhadn Ã¢
Ġsprink le
Ġhedge hog
Ġdemand ing
Ġsneak s
Ġble ated
Ġdifferen ces
Ġquack ing
Ġmass ages
Ann e
Ġpoison ed
Ġfloat y
Ġunicorn s
Ġhurric anes
Sh oo
ĠV room
ĠRob ert
Ġfiref lies
ĠJan et
Ġexpect ing
ĠY vonne
Ġchat ting
Sp ark
Sp ike
ĠAn other
ĠGr anny
Ġcomm on
Ġcomm unicate
Ġswirl s
Ġhealth ier
Ġamong st
Bet ty
Ġgap s
Ġtempt ed
Ġbehavi our
ĠBer nie
Ġshrug s
Pe ople
Ġdep ths
ĠRock y
Su zy
Ġcowb oys
ĠPipp in
ĠStar la
Ġdisobey ed
Ġsens ation
Ġhundred s
Pl aying
Ġge ese
Ġpeep ed
Ġmast erpiece
Ġpurch ase
ĠHug o
ĠRan i
Ġsnowfl akes
Ġtheat re
Ġlar ger
Ġlan tern
atild a
ĠAcc idents
Ġenem ies
Ġroundab out
Ġinsepara ble
A na
B o
D og
E ach
F ortunately
M artha
N ick
N utty
P ip
P oppy
P hil
R ob
T am
T ry
d ed
e vin
i am
l ia
m ary
n ings
o f
o pp
p an
p ast
p hew
r upt
u ke
u ess
w ee
Ġt ies
Ġs us
Ġs igning
Ġs ection
Ġto ad
in ct
Ġh udd
Ġh uffed
Ġwa king
Ġwa ded
re g
Ġf aint
Ġl ull
Ġl ush
er ing
Ġwas hes
Ġp apa
Ġp onies
ĠT w
Ġo gre
ar ley
ing ing
Ġg ad
Ġg orge
ĠS ir
ĠS illy
ĠS ince
or ty
Ġth ump
Ġth ousand
le st
ir ing
Ġin ches
ow s
Ġbe a
Ġbe ating
Ġy el
Ġr ises
Ġfor med
Ġfor ts
el icious
ĠB oo
ĠB ri
ĠB ounce
Ġwh ined
Ġk illed
al t
al ty
Ġne phew
Ġre ly
ĠM an
ĠIt sy
Ġan k
Ġloo s
Ġlo bby
Ġlo ses
ur ger
ĠA men
ĠA manda
Ġkn it
Ġkn itting
hing s
ood y
um m
Ġsc re
Ġman Ã¢
ĠW he
ĠW ipe
Ġtre as
Ġch ief
Ġwho ever
Ġla ce
Ġla unched
ĠL ight
ĠL uc
ĠL uggage
ĠE vie
Ġbec omes
Ġbl ade
Ġbl ob
Ġbl ues
ĠD ing
ĠD ale
ĠD eal
ĠD ennis
Ġab solut
ist ed
ess ion
ĠF isky
Ġho llow
Ġtr ades
Ġsl ight
Ġmo ons
ven ir
ink le
Ġrun ny
iz mo
Mom o
Ġfo am
ĠJo dy
Ġra ked
ĠC andy
ĠC hew
Åĵ Daddy
Ġwo nd
Ġgl ared
Ġdan ces
Ġwind ing
Ġun icycle
Ġun covered
ĠP r
ĠP ower
Ġown s
Ġlisten er
ĠG reat
ĠG igi
Ġac cess
Ġbright ened
ĠR iding
Ġmor nings
ath a
Ġwarm est
Ġz ippers
Ġpart ner
Ġhat ched
Ġlight house
ĠIn ch
atter ed
Ġel ves
Ġhun ger
Ġtable cloth
Ġsnow ing
Ġdeep ly
ĠK ris
ĠTo ot
ugg y
ang le
Ġgu ided
Ġmust ered
Ġtown spe
Ġcoll ap
Ġpa il
Ġheal ing
Ġinst ant
Ġinst inct
ix ie
ĠFl ip
Ġpen nies
to ed
ball s
ho col
Ġprotect ion
Ġrep airs
Ġmatter ed
Ġdes igning
Ġhor ri
Ġimag inary
ĠRe ady
ĠSt uart
Ġcoo lest
Ġmind ful
St ill
St ella
ĠLe a
Ġtun es
Ġca fe
Ġmeadow s
izz i
Ġgroup s
Ġneckl aces
Ġtick les
ĠBe an
Ġincred ibly
Ġparrot s
ĠBl ack
ĠBl ink
Ġtest s
Ġharm ful
Ġtwist s
Ġtrunk s
Ġcheck out
Ġsnee zes
Ġcaterpill ars
Ġapolog y
Ġloyal ty
Ġang rier
Ġreward ing
cut ter
Ġlaw s
Ġhoop s
Ġavo ided
ĠCl uck
Ġrepair ing
ĠSh ade
Ġfu rious
Ġbur ger
Ġsurround ing
Ġconf idence
Ġunlock ing
Ġostri ches
Ġsince re
Ġimagination s
ĠJu ly
ĠIs ab
Ġlumber j
Ġappro ach
Ġfle as
ah lia
Ġscratch y
Ġnightmare s
ÅĵWe Ã¢
ĠV iolet
Ġopin ions
ĠSee ing
Ġbang ing
Ġcal mer
ĠTuesday s
Dan iel
Ġdisagree ing
Ġcrowd ed
Ġgreet ing
Ġintroduc ing
Ġflas hes
ĠPrin t
ĠBo bb
ĠBo ssy
Ġproject s
ĠMel vin
Ġunf air
Ġunf amil
Ġcomm unity
ubb s
Ġmoo ing
ĠMon key
Ġstroll er
ĠBir dy
Ġdet ect
Ġpeck ing
Ġbom bs
Ġfirefight ers
Frank ie
Ġcond ition
Ġconnect ion
Ġheight s
Ġmemb er
Ġbless ed
Ġpound s
Ġunlo aded
Ġting ling
Ġwrink led
Ġnibb ling
Ġshin ier
race y
Ġdesper ate
ĠStrip es
Che ese
Ġsou venir
ĠSand ra
Ġpretz el
Ġpleas ant
Ġpopsic le
Ġpurp ose
ĠJul ia
Ġsnort ed
Ġgall oped
Ġwhoo sh
Ġposit ive
Ġenerg ized
Ġdou ble
Ġmitt s
Ġrev ved
ĠPen elope
Ġaband oned
ĠPer cy
Ġmilksh ake
Ġlull aby
Ġgorge ous
Ġyel ped
Ġtownspe ople
hocol ate
Ġunfamil iar
" !
B ig
B ang
C on
E va
H mm
J onny
J eremy
L una
L izzie
M ake
M addie
O oh
O pen
R ay
R ain
S n
S now
Y og
a nder
a br
b um
b ank
b elle
f ive
f low
h h
j ust
k er
l o
m ony
n if
p r
p rin
r ous
r uck
r ant
r uct
s ite
t ons
u a
u el
u ries
w oo
y la
z ip
he ard
Ġt ang
Ġt ugging
Ġs om
Ġs ipped
Ġw icked
Ġto t
Ġb icy
re sted
Ġf ist
Ġf ul
Ġl as
Ġl ump
Ġp y
Ġp ouch
Ġp ounced
ĠT all
ĠT racey
is dom
is bee
Ġg umb
at ic
Ġn ook
Ġn iece
Ġsa cks
Ġha re
Ġha mb
Ġha bit
an ed
on est
le phant
ĠH urry
ir ly
Ġin ched
Ġr is
Ġr umm
Ġst ur
Ġst ained
ĠI ce
Ġso ot
Ġplay d
Ġplay room
Ġwe Ã¢
Ġfor wards
ĠB ug
ĠB ree
ĠB ucky
ĠB rand
ĠB iscuit
ĠB RO
Ġli f
Ġlittle st
Ġdo ck
Ġwh irl
Ġwh ine
end ing
ĠM abel
ĠM urphy
ĠM atilda
Ġas s
Ġfriend Ã¢
Ġbo ld
Ġsp ikes
ind i
fu s
ĠA ce
ĠA ddy
ic al
ĠJ am
ĠJ ump
ĠJ ord
Ġcl ue
Ġal bum
Ġboy Ã¢
Ġro be
ĠW o
ĠW or
ĠW ait
ĠW oody
Ġco iled
Ġother wise
Ġch amp
Ġla pt
ĠL ia
ĠL ung
ĠL ots
Ġfl ick
Ġfl uff
ĠE lle
Ġsw itches
Ġv oy
ĠD ory
Ġbu bbled
Ġbu bbly
Ġbu bbling
ĠF ire
ĠF urry
ĠF ortunately
ĠF ighting
au ra
ers aul
Ġany ways
Ġmo at
Ġover head
Ġover heard
Ġtw el
Ġop t
Ġcom bs
ĠJack Ã¢
ĠJo Jo
ĠJo anna
ĠJo die
Ġflow ed
ĠC olby
Åĵ M
Åĵ OK
Åĵ Mum
sh ip
ock s
Ġreal izing
Let Ã¢
Ġdoll ar
Ġdoor step
Ġfr isbee
Ġdra g
ĠP aw
ĠP retty
ĠP aula
ĠP iggie
ĠP ixie
Ġdis aster
ĠG ail
ĠG izmo
ĠR ight
ĠR ia
ĠR osa
Ġdifferent ly
Ġsqu ish
Ġsqu aw
Jo hnnie
Ġar my
ĠTh ough
Ġsweet ness
us hes
Ġflo ppy
Ġcre ak
Ġcut ter
Ġcut est
Ġcool ed
Ġ- -
Ġwood cutter
Ġdri p
ĠDaisy Ã¢
Ġleft o
av annah
Ġhot dog
Ġju ices
os ite
Ġjoy fully
ĠWhat Ã¢
Ġriver bank
Ġgu lp
Ġmin i
Ġsign ature
Ġbasket s
Ġcup boards
Ġteac up
Ġdisapp earing
Ġwin ners
Ġspr out
Ġspr ung
Ġlunch box
Ġowl s
Ġmat s
Ġfan c
ĠO ink
ĠO ff
Ġpatient s
Ġfarm ers
Ġcollect or
Ġwra pper
Ġpres ence
Ġpass es
Ġhope less
ĠCh ubbs
Ġser vice
Good night
Ġmyster ies
Ġlast ed
Ġdelight ful
Ġspe ck
ĠSt ill
Ġmind ed
mo ke
Ġmir acle
Ġpin ching
ĠBe ary
ĠBe hind
Ġfeed er
oop y
Ġexam s
Ġeld est
Ġcap es
Ġpri v
Ġgrown up
Ġgrown ups
ĠZ oomy
Ġaw are
Ġbloom s
Ġcrack s
Ġmelt s
ĠRose mary
Ġregular ly
Ġcryst als
Ġstream s
Ġresc uing
Ġfierce ly
Ġwheel ed
Ġguard ian
Ġpersist ence
Ġserious ly
Ġang rily
Go d
Ġcere mony
keep ers
Ġcur l
Ġresist ing
com ing
ĠAlex is
Ġjet s
Ġstack s
Ġyawn s
Ġimpatient ly
Ġcamp site
Ġexper iment
Ġbull s
Ġfisher men
ĠSh ow
ĠSh ould
ĠSh are
Ġzebra s
Ch irpy
heart ed
ĠMiss ile
ĠInst antly
ĠPat ches
Ġquar re
Ġdust pan
ween y
Ġshort cut
Ġwigg ling
Ġflood ing
Ġrot ted
Ġnovel s
Ġapplaud ing
Ġchallen ged
Ġholiday s
Ġsurrender ing
Ġmeow s
Ġvillag er
ĠWho ever
ĠV ery
Ġweap ons
Al ong
ĠOl iver
Ġ1 5
Ġequ ally
Ġcomple ting
Ġdisagree ment
Ah oy
Ġmotion ed
Ġvent ure
Ġwid ely
od ore
Bu zzy
ĠCar rot
ĠMon a
Ġmesmer ised
eal ing
Ġrout e
Ġsnugg ling
Ġannoy ing
Ġopp osite
Ġwink s
Ġpeas ant
Ġdod ging
Ġchoo sing
Ġund o
Ġund one
Ġneare r
Ġscientist s
Ġpound ing
Ġunlo ad
Ġcowb oy
Ġnibb led
yl an
ĠSw im
Ġtopp ings
Ġrin sed
Ġmarve led
ĠQuick ly
Any time
Ġelectric ity
ĠTre y
ĠLa ure
Ġattempt s
Ġcartwhe el
Ġcontented ly
Ġjuic iest
Ġcompliment ed
Ġsqueal ing
Ġecho ing
Br own
urf ers
Ġfunn iest
Ġscree ch
Ġappet ite
Ġdev ast
Phil ip
Ġhudd led
Ġgad gets
Ġank le
Ġtreas ured
Ġwond rous
Ġcollap sed
abr ina
nif er
Ġsom ersaul
Ġbicy cles
Ġgumb all
Ġstur dy
ĠBrand y
ĠJord an
Ġlapt op
Ġvoy age
' ."
? !
B ark
B ee
B aa
C at
C are
C ool
D s
E ls
F ro
F riends
L enny
L izzy
M ick
M aisy
O O
P er
P apa
R obby
R alph
S qu
S weet
S ophia
T urn
Z oom
b ster
c he
c ri
c ies
c Queen
e ce
f reeze
f ived
g ood
g um
g th
g iving
j est
k ind
n or
p icious
r ink
r iting
s itter
t ail
u ri
u ds
w w
w reck
y sters
z iest
Ġ 5
Ġ icky
Ġt iring
Ġa qu
Ġs is
Ġs izz
Ġs ips
ed ic
Ġb ins
in ch
Ġf ries
Ġc y
Ġl en
Ġl itter
Ġl atch
Ġd art
er os
er ts
Ġp als
Ġp ipes
ĠT ell
ĠT oys
Ġo o
Ġo ars
ay ed
ar issa
ar bie
ing le
Ġg room
en y
en ore
Ġn ic
Ġn ations
ĠS ummer
ĠS plash
ĠS avannah
ĠS abrina
ll ut
ĠH im
ĠH ood
ĠH app
ĠH airy
ĠH atty
et ah
ir i
ver ing
Ġu nn
Ġr ipp
Ġr iches
Ġst eth
Ġst iff
ce l
Ġso bbing
ad a
ad ily
st al
Ġwe bs
Ġmom ma
ĠB ess
ĠB ink
ĠB opus
ĠB elle
The odore
Ġsh ame
Ġsh if
Ġsh aky
Ġsh immering
ly x
Ġdo zed
Ġwh izz
Ġwh iskers
Ġk it
end ant
al f
al oo
al thy
Ġre eds
ĠM other
ĠM ila
ĠM usa
ĠM cQueen
ra c
ra in
ra pped
ry stal
Ġlo bster
Ġbo lt
Ġj ars
Ġj ugg
Ġsp ool
Ġsp ied
Ġsp ik
Ġsp atul
ind ness
Ġat mo
ĠA lly
ĠA maz
ĠA de
rom ise
ĠJ in
ĠJ emma
ĠJ asper
um pl
um ana
Ġcl am
Ġcl ips
Ġal oud
Ġle ver
ick ing
Ġro ast
as hing
Ġsee king
ĠW illy
ĠW isdom
Ġbird Ã¢
ie ve
if i
ag ine
Ġpr ank
Ġpr ison
Ġcar go
Ġch unk
ĠL aser
ĠL izzi
ĠL enore
ĠE ating
ĠE aster
pl oy
Ġsw apped
Ġv ows
ust y
Ġbl ame
Ġbl ossom
ĠD ay
ĠD ara
