{"<PAD>":0,"<|endoftext|>":1,"!":2,"\"":3,"#":4,"$":5,"%":6,"&":7,"'":8,"(":9,")":10,"*":11,"+":12,",":13,"-":14,".":15,"/":16,"0":17,"1":18,"2":19,"3":20,"4":21,"5":22,"6":23,"7":24,"8":25,"9":26,":":27,";":28,"<":29,"=":30,">":31,"?":32,"@":33,"A":34,"B":35,"C":36,"D":37,"E":38,"F":39,"G":40,"H":41,"I":42,"J":43,"K":44,"L":45,"M":46,"N":47,"O":48,"P":49,"Q":50,"R":51,"S":52,"T":53,"U":54,"V":55,"W":56,"X":57,"Y":58,"Z":59,"[":60,"\\":61,"]":62,"^":63,"_":64,"`":65,"a":66,"b":67,"c":68,"d":69,"e":70,"f":71,"g":72,"h":73,"i":74,"j":75,"k":76,"l":77,"m":78,"n":79,"o":80,"p":81,"q":82,"r":83,"s":84,"t":85,"u":86,"v":87,"w":88,"x":89,"y":90,"z":91,"{":92,"|":93,"}":94,"~":95,"¡":96,"¢":97,"£":98,"¤":99,"¥":100,"¦":101,"§":102,"¨":103,"©":104,"ª":105,"«":106,"¬":107,"®":108,"¯":109,"°":110,"±":111,"²":112,"³":113,"´":114,"µ":115,"¶":116,"·":117,"¸":118,"¹":119,"º":120,"»":121,"¼":122,"½":123,"¾":124,"¿":125,"À":126,"Á":127,"Â":128,"Ã":129,"Ä":130,"Å":131,"Æ":132,"Ç":133,"È":134,"É":135,"Ê":136,"Ë":137,"Ì":138,"Í":139,"Î":140,"Ï":141,"Ð":142,"Ñ":143,"Ò":144,"Ó":145,"Ô":146,"Õ":147,"Ö":148,"×":149,"Ø":150,"Ù":151,"Ú":152,"Û":153,"Ü":154,"Ý":155,"Þ":156,"ß":157,"à":158,"á":159,"â":160,"ã":161,"ä":162,"å":163,"æ":164,"ç":165,"è":166,"é":167,"ê":168,"ë":169,"ì":170,"í":171,"î":172,"ï":173,"ð":174,"ñ":175,"ò":176,"ó":177,"ô":178,"õ":179,"ö":180,"÷":181,"ø":182,"ù":183,"ú":184,"û":185,"ü":186,"ý":187,"þ":188,"ÿ":189,"Ā":190,"ā":191,"Ă":192,"ă":193,"Ą":194,"ą":195,"Ć":196,"ć":197,"Ĉ":198,"ĉ":199,"Ċ":200,"ċ":201,"Č":202,"č":203,"Ď":204,"ď":205,"Đ":206,"đ":207,"Ē":208,"ē":209,"Ĕ":210,"ĕ":211,"Ė":212,"ė":213,"Ę":214,"ę":215,"Ě":216,"ě":217,"Ĝ":218,"ĝ":219,"Ğ":220,"ğ":221,"Ġ":222,"ġ":223,"Ģ":224,"ģ":225,"Ĥ":226,"ĥ":227,"Ħ":228,"ħ":229,"Ĩ":230,"ĩ":231,"Ī":232,"ī":233,"Ĭ":234,"ĭ":235,"Į":236,"į":237,"İ":238,"ı":239,"Ĳ":240,"ĳ":241,"Ĵ":242,"ĵ":243,"Ķ":244,"ķ":245,"ĸ":246,"Ĺ":247,"ĺ":248,"Ļ":249,"ļ":250,"Ľ":251,"ľ":252,"Ŀ":253,"ŀ":254,"Ł":255,"ł":256,"Ń":257,"he":258,"Ġt":259,"Ġa":260,"Ġs":261,"Ġw":262,"nd":263,"Ġthe":264,"ed":265,"Ġand":266,"Ġto":267,"Ġb":268,"in":269,"Ġh":270,"Ġwa":271,"re":272,"Ġf":273,"it":274,"ou":275,"Ġc":276,"Ġl":277,"Ġhe":278,"Ġd":279,"er":280,"Ġwas":281,"Ġm":282,"Ġp":283,"om":284,"ĠT":285,"Ġo":286,"ay":287,"ar":288,"ing":289,"is":290,"Ġg":291,"il":292,"id":293,"at":294,"en":295,"Ġn":296,"Ġsa":297,"Ġha":298,"ĠS":299,"im":300,"an":301,"ĠThe":302,"or":303,"on":304,"Ġit":305,"Ġth":306,"ll":307,"le":308,"ĠH":309,"Ġher":310,"et":311,"ot":312,"ir":313,"ĠShe":314,"ĠHe":315,"ver":316,"es":317,"Ġin":318,"ut":319,"ow":320,"ck":321,"Ġe":322,"Ġu":323,"ld":324,"ĠThey":325,"oo":326,"ig":327,"Ġsaid":328,"am":329,"ily":330,"Ġbe":331,"Ġy":332,"Ġr":333,"Ġst":334,"ce":335,"Ġshe":336,"Ġ\"":337,"pp":338,"ke":339,"ith":340,"On":341,"ĠI":342,"Ġwith":343,"ve":344,"Lily":345,"Ġon":346,"Ġof":347,"Ġso":348,"Ġhis":349,"ked":350,"ri":351,"nt":352,"very":353,"Ġpl":354,"Ġday":355,"ad":356,"Ġyou":357,"Ġthat":358,"Ġup":359,"Ġhad":360,"st":361,"Ġplay":362,"Ġthey":363,"ĠLily":364,"Ġwe":365,"Ġmom":366,"my":367,"Ġfor":368,"el":369,"ould":370,"un":371,"ĠB":372,"'s":373,"itt":374,"ent":375,"Ġhapp":376,"The":377,"ch":378,"Ġli":379,"out":380,"Ġwant":381,"Ġsh":382,"her":383,"ly":384,"ime":385,"ittle":386,"ound":387,"Ġvery":388,"Ġtime":389,"ome":390,"Ġlittle":391,"Ġthere":392,"se":393,"Ġdo":394,"Ġwh":395,"all":396,"Ġk":397,"end":398,"al":399,"ht":400,"Ġne":401,"Ġre":402,"Ġnot":403,"Ġhappy":404,"ĠĊ":405,"Ġbig":406,"ĠM":407,"Ġbut":408,"Ġsm":409,"ack":410,"Ġsaw":411,"ĠIt":412,"Ġas":413,"Ġan":414,"ra":415,"riend":416,"Ġfriend":417,"ide":418,"One":419,"ry":420,"'t":421,"ved":422,"Ġis":423,"Once":424,"ake":425,".\"":426,"Ġwere":427,"ter":428,"ug":429,"Ġloo":430,"Ġlo":431,"ore":432,"ec":433,"ĠTim":434,"Ġhim":435,"Ġbo":436,"!\"":437,"Ġtoo":438,"Ġgo":439,"Ġupon":440,"irl":441,"Ġj":442,"Ġwanted":443,"Ġgirl":444,"Ġse":445,"Ġout":446,"ard":447,"way":448,"Ġsp":449,"ill":450,"ind":451,"Ġthem":452,"Ġcould":453,"fu":454,"hen":455,"Ġat":456,"ur":457,"Ġdid":458,"Ġsmil":459,"Ġtheir":460,"Ġare":461,"Ġex":462,"ĠA":463,"ain":464,"Ġwent":465,"art":466,"hed":467,"rom":468,"ic":469,"round":470,"Ġhave":471,"Ġnam":472,"lp":473,"Ġall":474,"ĠJ":475,"ful":476,"Ġkn":477,"hing":478,"ood":479,"Ġhelp":480,"ight":481,"Ġfriends":482,"one":483,"ark":484,"Ġback":485,"um":486,"Ġcan":487,"Ġnamed":488,"Ġcl":489,"?\"":490,"Ġfun":491,"are":492,"ĠBen":493,"Ġloved":494,"Ġal":495,"elt":496,"ĠTimmy":497,"ĠOne":498,"op":499,"side":500,"Ġle":501,"Ġno":502,"Ġsc":503,"ĠTom":504,"Ġfelt":505,"oug":506,"Ġsmiled":507,"ick":508,"Ġasked":509,"You":510,"Ġtoy":511,"Ġman":512,"Ġaround":513,"ame":514,"Ġfe":515,"Ġsay":516,"Ġboy":517,"Ġsome":518,"Ġlooked":519,"ure":520,"omet":521,"Ġbr":522,"Ġwould":523,"Ġme":524,"Ġbir":525,"Ġlike":526,"get":527,"Ġstart":528,"Ġro":529,"as":530,"Ġsee":531,"ĠW":532,"ice":533,"ong":534,"Ġbird":535,"Ġsomet":536,"dd":537,"Ġwor":538,"ade":539,"ie":540,"king":541,"Ġag":542,"own":543,"Ġtre":544,"Ġfa":545,"Ġaway":546,"Ġwhat":547,"ings":548,"Ġstarted":549,"gether":550,"Ġran":551,"Ã¢":552,"âĤ":553,"âĤ¬":554,"ared":555,"Ġmake":556,"ĠBut":557,"ited":558,"if":559,"oud":560,"Ġmade":561,"Ġtogether":562,"Ġsomething":563,"Ġexc":564,"ag":565,"Ġco":566,"Ġpark":567,"Ġnew":568,"Ġsad":569,"Ġput":570,",\"":571,"Ġfrom":572,"ble":573,"ther":574,"Ġpr":575,"Ġmu":576,"Ġcar":577,"Ġhome":578,"ĠYou":579,"Ġthen":580,"Ġwhen":581,"Ġfound":582,"ell":583,"Ġother":584,"Ġagain":585,"Ġch":586,"Ġdec":587,"Ġwho":588,"Ġla":589,"ried":590,"ss":591,"Ġgood":592,"Ġhug":593,"ĠL":594,"pped":595,"Ġwal":596,"ep":597,"ally":598,"Ġsays":599,"Ġfl":600,"est":601,"ach":602,"ĠE":603,"Ġexcited":604,"pl":605,"qu":606,"ook":607,"Ġget":608,"ought":609,"Ġplaying":610,"Ġgot":611,"Ġsw":612,"ous":613,"hat":614,"ny":615,"ided":616,"uck":617,"Ġthings":618,"Ġevery":619,"Ġdecided":620,"Ġcame":621,"Ġbec":622,"ave":623,"ro":624,"ax":625,"Ġliked":626,"Ġdown":627,"Ġdog":628,"Ġscared":629,"Ġv":630,"udd":631,"ust":632,"Ġone":633,"Ġfind":634,"Ġbl":635,"Ġthan":636,"ĠD":637,"ouse":638,"ways":639,"Ġkne":640,"Ġdidn":641,"ap":642,"Ġmommy":643,"Ġcare":644,"Ġalways":645,"Ġab":646,"ist":647,"Ġdad":648,"Ġfeel":649,"ara":650,"bb":651,"arn":652,"fe":653,"Ġyour":654,"Ġoutside":655,"ue":656,"Ġgra":657,"ant":658,"Ġke":659,"ĠMom":660,"Ġtook":661,"Ġlot":662,"nn":663,"Ġbu":664,"Ġabout":665,"ess":666,"ĠF":667,"nder":668,"Ġtree":669,"eci":670,"Ġlook":671,"Ġpo":672,"Ġmy":673,"our":674,"Ġtoys":675,"ite":676,"ched":677,"Ġknew":678,"Ġthought":679,"ened":680,"Ġlearn":681,"Ġint":682,"Ġold":683,"Ġmore":684,"nna":685,"ise":686,"ged":687,"Ġta":688,"udden":689,"ecial":690,"Ġspecial":691,"ĠMax":692,"au":693,"Ġwill":694,"ers":695,"They":696,"ret":697,"Ġpe":698,"Ġho":699,"ĠSam":700,"Ġtake":701,"Ġball":702,"Ġknow":703,"Ġlaug":704,"fter":705,"uddenly":706,"Ġcat":707,"Ġhow":708,"ive":709,"Ġtr":710,"Ġmuch":711,"Ġany":712,"Ġpu":713,"ma":714,"Ġsl":715,"Ġsor":716,"Ġmo":717,"ven":718,"ish":719,"Ġshow":720,"Ġcouldn":721,"ause":722,"ink":723,"But":724,"Ġhouse":725,"Ġinto":726,"ump":727,"Ġover":728,"Ġtried":729,"and":730,"Ġeat":731,"Ġsk":732,"Ġsun":733,"Ġtw":734,"Ġclo":735,"ia":736,"Ġrun":737,"Ġhand":738,"ĠEvery":739,"Ġen":740,"Ġinside":741,"dy":742,"Ġif":743,"Ġtold":744,"Ġnever":745,"ion":746,"Ġqu":747,"Ġbecause":748,"by":749,"Ġproud":750,"Ġgave":751,"Ġsorry":752,"Ġthis":753,"Ġop":754,"Ġplayed":755,"ate":756,"Ġexpl":757,"Ġheard":758,"ty":759,"Ġor":760,"Ġwater":761,"ank":762,"ge":763,"sed":764,"Ġpick":765,"other":766,"Ġroom":767,"etter":768,"Ġjust":769,"ace":770,"Ġhugged":771,"ak":772,"Ġgre":773,"here":774,"Ġoff":775,"ĠSara":776,"Ġpret":777,"ile":778,"Ġeach":779,"Ġcom":780,"Ġlong":781,"Ġbox":782,"ort":783,"Ġstr":784,"iz":785,"Ġunt":786,"Ġwat":787,"oth":788,"Ġneed":789,"Ġjo":790,"ĠWe":791,"Tom":792,"Ġsmall":793,"ine":794,"Ġbear":795,"Mom":796,"Ġuntil":797,"Ġnice":798,"Ġtry":799,"ving":800,"uc":801,"sel":802,"ough":803,"Ġlearned":804,"Ġkind":805,"ĠAnna":806,"ild":807,"Ġfo":808,"Ġmany":809,"'m":810,"ĠJack":811,"Ġbetter":812,"Ġim":813,"gry":814,"imal":815,"Ġanimal":816,"urt":817,"ft":818,"Ġend":819,"Ġsn":820,"aut":821,"Ġte":822,"Ġcle":823,"ĠJo":824,"vent":825,"urp":826,"Ġgr":827,"Ġbeaut":828,"Ġjump":829,"mb":830,"Ġad":831,"ream":832,"pt":833,"ĠSo":834,"ĠHer":835,"Ġflow":836,"ies":837,"Ġche":838,"Ġbra":839,"Ġthanked":840,"Ġeven":841,"Ġbest":842,"Ġcall":843,"ady":844,"He":845,"Ġlots":846,"Ġlaughed":847,"self":848,"Ġra":849,"Ġway":850,"ars":851,"urn":852,"Ġby":853,"Ġfast":854,"lly":855,"Ġfam":856,"ĠC":857,"ves":858,"arden":859,"Ġgarden":860,"Ġbeauti":861,"wn":862,"Th":863,"Ġbeautiful":864,"Ġloud":865,"lew":866,"Ġsky":867,"Ġdon":868,"hn":869,"ered":870,"iny":871,"Ġcareful":872,"Ġlove":873,"Ġfi":874,"ĠThen":875,"Åĵ":876,"ase":877,"ect":878,"Ġsafe":879,"ĠAnd":880,"Ġunder":881,"Ġcome":882,"ĠFrom":883,"Yes":884,"ĠMia":885,"It":886,"me":887,"Ġhard":888,"Ġcu":889,"Ġwo":890,"Ġlist":891,"Ġstay":892,"ane":893,"sh":894,"ople":895,"Ġgl":896,"ning":897,"Ġstill":898,"ool":899,"Ġhurt":900,"ree":901,"ĠHis":902,"Ġimp":903,"Ġfamily":904,"ĠÃ¢":905,"Ġboth":906,"rm":907,"igh":908,"Ġlived":909,"hes":910,"When":911,"Ġpeople":912,"Ġanimals":913,"Ġcol":914,"Ġbrave":915,"Ġwalked":916,"ob":917,"Tim":918,"ct":919,"Ġlet":920,"urpr":921,"ĠWhen":922,"Ġtwo":923,"Ġsurpr":924,"Ġshould":925,"ished":926,"Ġbad":927,"ress":928,"Ġkept":929,"Ġfore":930,"Ġflew":931,"Ġfin":932,"Ġstor":933,"Ġfly":934,"ast":935,"ised":936,"ip":937,"Ġits":938,"led":939,"ock":940,"ucy":941,"fore":942,"Ġgoing":943,"Ġclean":944,"Ġdan":945,"Ġpic":946,"Ġsoon":947,"Ġcalled":948,"Ġshare":949,"kay":950,"Ġangry":951,"Ġrock":952,"Ġcon":953,"Ġpretty":954,"No":955,"Ġide":956,"ied":957,"illy":958,"Ġground":959,"xt":960,"Ġred":961,"Ġexplore":962,"Ġcry":963,"Ġadvent":964,"Ġsto":965,"so":966,"Ġreal":967,"Let":968,"Ġwind":969,"Ġshiny":970,"be":971,"Ġbook":972,"Ġalso":973,"Ġdoll":974,"Ġidea":975,"Ġbefore":976,"Ġopened":977,"dded":978,"Ġwhile":979,"ummy":980,"Ġkeep":981,"Ġey":982,"Ġnow":983,"Ġdoor":984,"Ġfeeling":985,"âĤ¬â":986,"oon":987,"oy":988,"Ġwalking":989,"Ġnoise":990,"Ġfr":991,"les":992,"age":993,"ious":994,"Ġcolor":995,"Ġturn":996,"thing":997,"ff":998,"uch":999,"th":1000,"Ġbed":1001,"ary":1002,"Ġdra":1003,"Ġpicked":1004,"imb":1005,"eet":1006,"Ġclimb":1007,"Ġdel":1008,"What":1009,"Ġbeing":1010,"Ġfood":1011,"Ġun":1012,"Ġfar":1013,"ture":1014,"joy":1015,"Ġadventure":1016,"ac":1017,"Ġsmile":1018,"Ġdif":1019,"Ħ¢":1020,"âĤ¬âĦ¢":1021,"memb":1022,"Ġwr":1023,"Ġthr":1024,"ught":1025,"Ġlooking":1026,"Ġnext":1027,"iced":1028,"ĠLucy":1029,"Ġnodded":1030,"Ġquick":1031,"ĠP":1032,"Ġdis":1033,"Ġrepl":1034,"ĠDad":1035,"Ġwait":1036,"ized":1037,"Ġforest":1038,"Ġclos":1039,"ĠSuddenly":1040,"Ġtra":1041,"That":1042,"Ġeyes":1043,"ger":1044,"bbit":1045,"ted":1046,"Ġown":1047,"Ġrain":1048,"Ġimport":1049,"Ġgreat":1050,"Ġrememb":1051,"Ġpicture":1052,"Thank":1053,"Suddenly":1054,"Ġstopped":1055,"Ġenjoy":1056,"Ġvo":1057,"Ben":1058,"Ġgive":1059,"Ġimportant":1060,"Ġwork":1061,"Ġnear":1062,"gan":1063,"pot":1064,"Ġever":1065,"Ġapp":1066,"Ġafter":1067,"Ġquickly":1068,"Ġlisten":1069,"Ġbre":1070,"ting":1071,"bbed":1072,"Ġma":1073,"Ġfish":1074,"Ġreplied":1075,"Ġrabbit":1076,"Ġhands":1077,"ĠG":1078,"Ġnoticed":1079,"Ġbro":1080,"Ġslide":1081,"Ġthink":1082,"Ġwalk":1083,"Ġtruck":1084,"Ġac":1085,"kes":1086,"Ġstrong":1087,"She":1088,"Ġshowed":1089,"Ġde":1090,"Ġeveryone":1091,"Ġwonder":1092,"fere":1093,"bye":1094,"Ġdiffere":1095,"irst":1096,"So":1097,"Ġsure":1098,"Ġhas":1099,"Ġright":1100,"Ġbeen":1101,"Ġbecame":1102,"Ġsound":1103,"maz":1104,"Ġtow":1105,"Ġru":1106,"Ġtal":1107,"Ġamaz":1108,"Ġhead":1109,"Ġshout":1110,"Ġbright":1111,"Ġye":1112,"Ġwatched":1113,"ĠR":1114,"Ġmor":1115,"Ġchild":1116,"able":1117,"Ġmean":1118,"Ġwhere":1119,"llow":1120,"Ġhigh":1121,"ĠSue":1122,"Ġface":1123,"Ġcook":1124,"day":1125,"aybe":1126,"Ġwatch":1127,"Ġblue":1128,"aught":1129,"Ġdifferent":1130,"Ġstore":1131,"ĠN":1132,"Ġgoodbye":1133,"Ġdress":1134,"ull":1135,"ĠBob":1136,"ng":1137,"ange":1138,"Ġsqu":1139,"Ġokay":1140,"isy":1141,"lease":1142,"ĠMommy":1143,"Ġvoice":1144,"Jo":1145,"ath":1146,"Ġnight":1147,"ĠSpot":1148,"Ġus":1149,"Ġboat":1150,"Ġflowers":1151,"Ġplace":1152,"Ġfollow":1153,"Ġar":1154,"Ġuse":1155,"Ġcloser":1156,"unny":1157,"leep":1158,"ired":1159,"Ġfav":1160,"Ġyell":1161,"Ġgrabbed":1162,"Ġcuri":1163,"Ġwarm":1164,"Ġcr":1165,"Ġforg":1166,"ĠSarah":1167,"ĠJohn":1168,"Ġmag":1169,"Ġstick":1170,"We":1171,"Ġjumped":1172,"Ġcake":1173,"more":1174,"Ġtell":1175,"Ġanymore":1176,"After":1177,"Ġbutter":1178,"ndma":1179,"Ġthree":1180,"Ġask":1181,"co":1182,"Ġour":1183,"lie":1184,"Ġcurious":1185,"ount":1186,"orn":1187,"Ġcont":1188,"Ġfell":1189,"ached":1190,"ĠTh":1191,"Ġbirds":1192,"ass":1193,"Her":1194,"iss":1195,"Ġhelped":1196,"ĠJane":1197,"Ġpull":1198,"Ġfirst":1199,"itc":1200,"Ġblock":1201,"Ġhop":1202,"Ġbit":1203,"Ġdr":1204,"Ġrealized":1205,"Ġkid":1206,"Look":1207,"ila":1208,"Ġmon":1209,"Ġbrother":1210,"Anna":1211,"Sara":1212,"Ġz":1213,"ĠEveryone":1214,"Ġate":1215,"Ġdoes":1216,"imes":1217,"Ġhappened":1218,"Ġstop":1219,"zy":1220,"Ġyummy":1221,"Ġfavor":1222,"ppy":1223,"Ġkitc":1224,"Ġkitchen":1225,"Ġsweet":1226,"us":1227,"Ġper":1228,"Ġreally":1229,"aisy":1230,"Ġgrass":1231,"Ġfavorite":1232,"Ġbegan":1233,"Ġrest":1234,"Ġready":1235,"Ġlea":1236,"Ġreached":1237,"Ġunderst":1238,"air":1239,"Ġste":1240,"Ġbunny":1241,"ĠAs":1242,"Ġstory":1243,"'re":1244,"Ġpain":1245,"Ġsing":1246,"ster":1247,"Ġhere":1248,"Ġsand":1249,"Ġonly":1250,"Ġflo":1251,"Ġam":1252,"Ġglad":1253,"Ġtri":1254,"Ġbeh":1255,"Ġworld":1256,"Ġopen":1257,"Ġcre":1258,"fully":1259,"Ġprin":1260,"where":1261,"arent":1262,"Ġflower":1263,"Ġthrough":1264,"Ġba":1265,"Ġfire":1266,"Ġdone":1267,"Ġhaving":1268,"Ġthing":1269,"Ġdelic":1270,"Ġhimself":1271,"Ġtired":1272,"Ġparent":1273,"Ġsoft":1274,"Ġfro":1275,"Timmy":1276,"Ġtast":1277,"Ġbutterf":1278,"ĠLet":1279,"Ġcut":1280,"Ġpart":1281,"Ġwhy":1282,"ken":1283,"Ġmess":1284,"Can":1285,"Ġworry":1286,"Mommy":1287,"iver":1288,"Ġdin":1289,"uff":1290,"ater":1291,"Ġmagic":1292,"Ġwaved":1293,"Ġshouted":1294,"Ġpond":1295,"Ġkids":1296,"Ġhat":1297,"Ġduck":1298,"Ġsees":1299,"olly":1300,"illed":1301,"Ġgame":1302,"ient":1303,"Ġmaking":1304,"ather":1305,"John":1306,"As":1307,"akes":1308,"Ġcatch":1309,"Ġseen":1310,"Ġcool":1311,"ation":1312,"Ġcoming":1313,"Ġless":1314,"Ġdark":1315,"Ġused":1316,"eddy":1317,"Ġfix":1318,"ĠJoe":1319,"Ġthank":1320,"mer":1321,"Ġtop":1322,"Ġlady":1323,"Ġhair":1324,"aring":1325,"Ġprom":1326,"Ġhopped":1327,"ĠCan":1328,"\".":1329,"ign":1330,"Ġsurprise":1331,"Ġdraw":1332,"Ġmum":1333,"Ġmouse":1334,"Ġfunny":1335,"rel":1336,"Ġcra":1337,"Ġ-":1338,"aper":1339,"Ġfull":1340,"Ġtouch":1341,"Ġlight":1342,"Ġspot":1343,"ren":1344,"Ġdro":1345,"ĠBenny":1346,"Ġparents":1347,"Ġworked":1348,"ins":1349,"oney":1350,"ĠDo":1351,"Ġsurprised":1352,"Ġcarefully":1353,"Ġtrees":1354,"Ġfrog":1355,"Ġswing":1356,"Ġdoing":1357,"Don":1358,"Ġsat":1359,"inally":1360,"ĠThat":1361,"Ġice":1362,"ĠIn":1363,"Ġheld":1364,"Wow":1365,"Ġrunning":1366,"Ġpretend":1367,"Ġswim":1368,"Ġset":1369,"Ġread":1370,"Ġdelicious":1371,"Ġneeded":1372,"Ġtight":1373,"Ġslow":1374,"Ġremembered":1375,"Ġlost":1376,"Ġcold":1377,"Ġsmell":1378,"ards":1379,"Ġwood":1380,"Ġhappily":1381,"hy":1382,"ely":1383,"Ġlooks":1384,"Ġbehind":1385,"Ġherself":1386,"Ġcried":1387,"Ġenjoyed":1388,"Ġname":1389,"ask":1390,"Ġyears":1391,"Ġbuy":1392,"Ġhole":1393,"Ġblocks":1394,"Ġdri":1395,"Ġsleep":1396,"Ġgi":1397,"Ġyellow":1398,"cess":1399,"Ġbutterfly":1400,"ike":1401,"ued":1402,"Ġwished":1403,"Ġperf":1404,"Ġanother":1405,"ĠDaisy":1406,"Ġgreen":1407,"Ġmove":1408,"Ġtall":1409,"Ġair":1410,"Ġbag":1411,"Ġfloor":1412,"Ġcars":1413,"Ġlesson":1414,"ul":1415,"Ġbow":1416,"Ġarri":1417,"Ġwindow":1418,"Ġsho":1419,"Ġchildren":1420,"ner":1421,"Ġfinished":1422,"Ġhill":1423,"ĠAfter":1424,"andy":1425,"sp":1426,"ens":1427,"Ġpaper":1428,"Ġlikes":1429,"From":1430,"sy":1431,"Ġhold":1432,"Sam":1433,"Ġwrong":1434,"reed":1435,"Ġcontin":1436,"Ġunderstand":1437,"atter":1438,"uit":1439,"rew":1440,"Ġgent":1441,"Ġanything":1442,"Ġclose":1443,"Ġwall":1444,"Ġel":1445,"asure":1446,"Ġleft":1447,"Ġable":1448,"Ġarrived":1449,"Ġhun":1450,"ross":1451,"av":1452,"Ġhear":1453,"Ġfriendly":1454,"Ġforgot":1455,"Ġgone":1456,"ama":1457,"Ġcreat":1458,"Ġwet":1459,"Ġlion":1460,"Hell":1461,"Hello":1462,"Ġdream":1463,"Ġhot":1464,"bo":1465,"ber":1466,"ĠSally":1467,"Ġfilled":1468,"Ġdir":1469,"ield":1470,"Ġcookies":1471,"Ġlaugh":1472,"Ġbroken":1473,"Ġdinner":1474,"lf":1475,"Ġelse":1476,"Ġhid":1477,"ced":1478,"Ġpink":1479,"Ġfollowed":1480,"Ġtable":1481,"Ġmar":1482,"Ġcolors":1483,"oup":1484,"Ġmoment":1485,"Ġcontinued":1486,"Ġwonderful":1487,"ĠEm":1488,"ey":1489,"ined":1490,"irrel":1491,"rot":1492,"Ġfinally":1493,"Jack":1494,"Ġarm":1495,"Ġmight":1496,"ĠNow":1497,"Ġcast":1498,"Ġyes":1499,"Ġbuild":1500,"Ġenough":1501,"ĠBilly":1502,"Ġsomeone":1503,"Ġperfect":1504,"Ġfair":1505,"Ġstayed":1506,"app":1507,"Ġmorning":1508,"ĠThere":1509,"Ġpuppy":1510,"ol":1511,"Ġdaddy":1512,"Ġtrying":1513,"'ll":1514,"Ġju":1515,"Ġothers":1516,"Ġbooks":1517,"Ġagreed":1518,"Ġmus":1519,"Ġsnow":1520,"Ġsquirrel":1521,"Ġcream":1522,"room":1523,"Ġgetting":1524,"Ġgrandma":1525,"ĠLila":1526,"Ġleaves":1527,"Ġbaby":1528,"Ġcount":1529,"icy":1530,"Ġfew":1531,"At":1532,"Ġfall":1533,"Then":1534,"gon":1535,"Ġbreak":1536,"Ġclimbed":1537,"ries":1538,"Ġbeach":1539,"ash":1540,"Ġbug":1541,"Ġplease":1542,"Ġmother":1543,"Ġbrought":1544,"Ġtrain":1545,"ance":1546,"ĠThis":1547,"Ġdeep":1548,"Ġvis":1549,"ated":1550,"shed":1551,"Ġmet":1552,"Ġwasn":1553,"Ġsometimes":1554,"Ġeverything":1555,"ĠTommy":1556,"ich":1557,"Ġmusic":1558,"key":1559,"ling":1560,"This":1561,"os":1562,"Ġturned":1563,"lc":1564,"Ġride":1565,"oom":1566,"Ġsong":1567,"oring":1568,"Ġspark":1569,"Ġfight":1570,"Ġhungry":1571,"ons":1572,"Ġpictures":1573,"ds":1574,"Ġmakes":1575,"Ġsear":1576,"ucky":1577,"Ġlistened":1578,"Ġjoy":1579,"Ġpol":1580,"ĠWhat":1581,"His":1582,"ee":1583,"Ġclot":1584,"Ġsail":1585,"apped":1586,"bble":1587,"Ġcomp":1588,"Ġplan":1589,"Ġwants":1590,"Ġclothes":1591,"Ġpoin":1592,"ĠK":1593,"zz":1594,"Ġballoon":1595,"Ġstrange":1596,"man":1597,"enny":1598,"Ġpi":1599,"Ġgrow":1600,"Ġflying":1601,"row":1602,"Ġscary":1603,"Ġtreat":1604,"Ġwaited":1605,"Ġamazed":1606,"Ġteddy":1607,"Ġcastle":1608,"ister":1609,"Ġele":1610,"Ġamazing":1611,"med":1612,"Ġspl":1613,"Oh":1614,"Ġleave":1615,"Ġowner":1616,"Ġpromised":1617,"Ġdanger":1618,"ever":1619,"OK":1620,"Ġsuch":1621,"Ġwhite":1622,"Ġpat":1623,"Ġtalk":1624,"uffy":1625,"Ġfur":1626,"Ġpie":1627,"ope":1628,"red":1629,"Ġpulled":1630,"Ġpre":1631,"Ġwoods":1632,"ĠTo":1633,"Ġshared":1634,"Ġalone":1635,"Ġtowards":1636,"cle":1637,"ĠMaybe":1638,"Ġsit":1639,"Ġnap":1640,"Ġcolorful":1641,"amp":1642,"hone":1643,"Ġvisit":1644,"igg":1645,"ugg":1646,"thy":1647,"ence":1648,"Ġtail":1649,"ctor":1650,"Ġmagical":1651,"Ġriver":1652,"Ġhig":1653,"Ġbelie":1654,"Ġgrate":1655,"ually":1656,"ang":1657,"ott":1658,"Ġhide":1659,"Ġsilly":1660,"Ġsmiles":1661,"ower":1662,"Ġside":1663,"Max":1664,"Ġroll":1665,"Ġgu":1666,"ĠAmy":1667,"Ġpro":1668,"eter":1669,"Ġfaster":1670,"Ġgrateful":1671,"Ġtreasure":1672,"ased":1673,"Ġsnack":1674,"up":1675,"Ġland":1676,"avy":1677,"Ġmoral":1678,"ained":1679,"Ġsister":1680,"ĠGra":1681,"Ġshap":1682,"Ġpaint":1683,"Ġslowly":1684,"Ġfield":1685,"Ġpet":1686,"Ġsec":1687,"orm":1688,"ĠJim":1689,"Ġbran":1690,"Ġmin":1691,"Ġmust":1692,"Ġhelping":1693,"Ġworried":1694,"Ġjob":1695,"Ġfox":1696,"set":1697,"Ġmoney":1698,"Ġpot":1699,"Ġqui":1700,"Ġbel":1701,"Ġacc":1702,"Ġliving":1703,"Ġmonster":1704,"less":1705,"Ġparty":1706,"ear":1707,"Ġmost":1708,"Ġwear":1709,"Ġremember":1710,"ire":1711,"Ġsign":1712,"wl":1713,"Ġcloud":1714,"Ġcandy":1715,"Ġhigher":1716,"ipped":1717,"ident":1718,"ĠAll":1719,"der":1720,"ze":1721,"Ġquiet":1722,"Ġtown":1723,"unch":1724,"Ġprincess":1725,"Ġruns":1726,"asket":1727,"em":1728,"Ġeverywhere":1729,"Ġjoin":1730,"Ġstepped":1731,"Ġbasket":1732,"Ġlake":1733,"Ġcup":1734,"sw":1735,"outh":1736,"Ġcarrot":1737,"Ġcoll":1738,"Ġplant":1739,"Ġscream":1740,"ĠDaddy":1741,"Ġbuck":1742,"Ġheavy":1743,"Ġbigger":1744,"Ġcho":1745,"Ġblank":1746,"Ġclosed":1747,"Ġwon":1748,"ises":1749,"Ġansw":1750,"br":1751,"Ġblanket":1752,"Ġmouth":1753,"ames":1754,"eces":1755,"Ġeating":1756,"Ġpieces":1757,"cket":1758,"Ġstre":1759,"Ġwelc":1760,"Ġwouldn":1761,"Ġreach":1762,"Ġbroke":1763,"eared":1764,"Ġdangerous":1765,"gs":1766,"ph":1767,"ĠMolly":1768,"Ġce":1769,"ĠMr":1770,"ord":1771,"fort":1772,"Ġdolls":1773,"ming":1774,"Ġdance":1775,"Ġdragon":1776,"Ġthinks":1777,"Ġasks":1778,"Ġacross":1779,"Okay":1780,"Ġchair":1781,"Ġteac":1782,"Ġbott":1783,"Hi":1784,"Ġpa":1785,"Ġneigh":1786,"Ġbar":1787,"Ġbike":1788,"Ġpack":1789,"iting":1790,"Ġdisapp":1791,"Ġneighb":1792,"Ġstuck":1793,"de":1794,"Ġgif":1795,"Ġfruit":1796,"Ġbelieve":1797,"cy":1798,"Ġve":1799,"Ġcrying":1800,"ier":1801,"phant":1802,"Ġsuddenly":1803,"Ġsoup":1804,"Ġrace":1805,"Ġthrew":1806,"Sure":1807,"Ġfarmer":1808,"Ġaccident":1809,"Ġdirty":1810,"Ġelephant":1811,"Ġmonkey":1812,"Ġheal":1813,"weet":1814,"Ġrem":1815,"Ġpers":1816,"Ġsame":1817,"ored":1818,"ventually":1819,"ead":1820,"pping":1821,"Ġgentle":1822,"Ġfree":1823,"Ġbrown":1824,"Maybe":1825,"Ġinst":1826,"Ġbee":1827,"ix":1828,"Ġben":1829,"Ġwin":1830,"Ġblack":1831,"Ġalong":1832,"Ġlonger":1833,"ible":1834,"Ġspr":1835,"Ġclapped":1836,"Finally":1837,"Why":1838,"cked":1839,"Ġwords":1840,"ĠFl":1841,"Ġteacher":1842,"Ġupset":1843,"chool":1844,"Ġpiece":1845,"Ġwell":1846,"Ġcheered":1847,"Ġhit":1848,"Ġsang":1849,"ment":1850,"Ġbowl":1851,"Ġbite":1852,"Ġdoctor":1853,"ĠJill":1854,"Ġbucket":1855,"Mia":1856,"Ġbath":1857,"Ġcaught":1858,"Ġheart":1859,"Ġforget":1860,"Ġmark":1861,"Ġbutt":1862,"Ġdry":1863,"Ġyoung":1864,"Ġsea":1865,"Ġcour":1866,"Ġdropped":1867,"ese":1868,"Ġyard":1869,"Ġplac":1870,"ourn":1871,"Ġschool":1872,"Ġswings":1873,"bby":1874,"Ġwings":1875,"bs":1876,"Ġexplained":1877,"Ġjourn":1878,"Ġbring":1879,"Ġdrink":1880,"Ġstreet":1881,"Ġjuice":1882,"ung":1883,"Ġnearby":1884,"ĠEmma":1885,"Ġsmo":1886,"Ġsmart":1887,"Ġpushed":1888,"Ġstories":1889,"Ġdrove":1890,"Ġtiny":1891,"Ġpen":1892,"Ġcourse":1893,"Ġes":1894,"Ġmine":1895,"Ġtoday":1896,"Ġpocket":1897,"Ġyear":1898,"aughter":1899,"Ġje":1900,"Ġsecret":1901,"Ġexp":1902,"Ġwithout":1903,"Ġsinging":1904,"Ġwelcome":1905,"Ġhappen":1906,"to":1907,"Ġfit":1908,"Ġstu":1909,"vel":1910,"ract":1911,"Ġbus":1912,"Ġcheese":1913,"Ġcray":1914,"Ġfairy":1915,"Ġjar":1916,"Ġturns":1917,"Ġbush":1918,"bow":1919,"llo":1920,"Ġexploring":1921,"Ġlon":1922,"Ġstand":1923,"itting":1924,"Ġseemed":1925,"Ġspoon":1926,"ĠFinally":1927,"Ġgames":1928,"Ġwoke":1929,"issed":1930,"Ġresp":1931,"Ġtrou":1932,"Ġtwins":1933,"Ġhoped":1934,"Ġatt":1935,"Ġlonely":1936,"Ġant":1937,"ĠMama":1938,"orrow":1939,"Ġnoises":1940,"Ġhugs":1941,"ountain":1942,"yard":1943,"Ġdaughter":1944,"Ġinv":1945,"Ġkey":1946,"ail":1947,"Ġrocks":1948,"Ġdisco":1949,"Ġsu":1950,"Ġlunch":1951,"read":1952,"oun":1953,"vered":1954,"Ġbackyard":1955,"Ġsuc":1956,"Ġcow":1957,"Ġapple":1958,"ek":1959,"Ġswam":1960,"Ġshoes":1961,"Ġstars":1962,"Ġshook":1963,"ittens":1964,"Ġmiss":1965,"ches":1966,"Ġwish":1967,"Ġrelie":1968,"fused":1969,"Ġshapes":1970,"urple":1971,"Ġtower":1972,"ity":1973,"Ġcorn":1974,"Ġmoved":1975,"shine":1976,"Ġ3":1977,"Ġthough":1978,"Ġcir":1979,"umb":1980,"Ġtaking":1981,"ts":1982,"ĠTweet":1983,"ape":1984,"Ġrainbow":1985,"Ġthrow":1986,"Ġstar":1987,"Ġbench":1988,"Ġneck":1989,"ocked":1990,"Ġcreature":1991,"Ġbubble":1992,"Ġlate":1993,"Ġadventures":1994,"Ġowl":1995,"ions":1996,"And":1997,"Ġwhe":1998,"Ġpar":1999,"Ġshell":2000,"Ġkite":2001,"ĠFluffy":2002,"ining":2003,"Ġmil":2004,"unt":2005,"Ġfence":2006,"Ġmix":2007,"Ġlift":2008,"Ġaccidentally":2009,"Ġwise":2010,"Ġhello":2011,"Ġpurple":2012,"pper":2013,"Ġonto":2014,"Ġspin":2015,"ten":2016,"ours":2017,"Ġsitting":2018,"idge":2019,"Ġsunshine":2020,"Ġcute":2021,"Ġmat":2022,"ward":2023,"Ġshop":2024,"Ġwhist":2025,"Ġdist":2026,"Ġorange":2027,"Lila":2028,"Ġnaught":2029,"ĠSammy":2030,"Ġnaughty":2031,"Ġnest":2032,"ose":2033,"ors":2034,"lla":2035,"Ġmilk":2036,"fish":2037,"Ġaf":2038,"Ġboun":2039,"Ġphone":2040,"Ġarms":2041,"Ġeas":2042,"ness":2043,"Ġcarry":2044,"ĠGrandma":2045,"og":2046,"Ġbought":2047,"Ġdriver":2048,"Ġinstead":2049,"Later":2050,"Ġtalked":2051,"Ġsearched":2052,"gged":2053,"Ġpig":2054,"Ġcozy":2055,"Ġsunny":2056,"itty":2057,"Ġfeels":2058,"Ġfan":2059,"Ġwondered":2060,"Ġcomes":2061,"Ġswimming":2062,"uched":2063,"Ġtouched":2064,"Ġpop":2065,"ĠInside":2066,"ale":2067,"Ġlucky":2068,"Ġlaughing":2069,"Ġbelong":2070,"Ġsounds":2071,"Ġwom":2072,"Ġcave":2073,"let":2074,"Ġjourney":2075,"Ġwoman":2076,"Ġcou":2077,"Ġnothing":2078,"Ġcoat":2079,"Ġrelieved":2080,"ĠO":2081,"Ġpeace":2082,"adow":2083,"Ġnose":2084,"Ġbusy":2085,"Bob":2086,"Ġpast":2087,"Ġapples":2088,"Ġsick":2089,"Ġrope":2090,"Ġpatient":2091,"Ġact":2092,"Ġpudd":2093,"Ġinc":2094,"raid":2095,"Ġwatching":2096,"Ġbranch":2097,"Ġafraid":2098,"Ġtom":2099,"ider":2100,"Ġdays":2101,"Ġret":2102,"cing":2103,"ĠMary":2104,"Ġband":2105,"Ġfarm":2106,"Ġhuge":2107,"ĠThank":2108,"ator":2109,"Ġexciting":2110,"Ġdanced":2111,"thday":2112,"Ġwar":2113,"ĠSoon":2114,"ball":2115,"Ġgigg":2116,"blem":2117,"Ġzoom":2118,"Ġmad":2119,"Ġvill":2120,"Ġforever":2121,"Ġproblem":2122,"Ġcollect":2123,"ped":2124,"irt":2125,"Ġminut":2126,"Ġwra":2127,"ho":2128,"Ġlife":2129,"Ġknee":2130,"ces":2131,"Do":2132,"cer":2133,"mp":2134,"arp":2135,"Ġking":2136,"Ġasleep":2137,"Ġreturn":2138,"Ġsharp":2139,"Ġrel":2140,"Ġpower":2141,"eth":2142,"Ġholding":2143,"Ġfing":2144,"Ġhealthy":2145,"ĠMittens":2146,"Ġprot":2147,"Ġmeet":2148,"Ġorgan":2149,"Ġclever":2150,"Ġspotted":2151,"Ġletter":2152,"Ġgather":2153,"alm":2154,"Of":2155,"ere":2156,"Ġround":2157,"Ġstorm":2158,"Ġprotect":2159,"Ġgift":2160,"amed":2161,"Ġmail":2162,"ĠJen":2163,"Ġbirthday":2164,"Ġpres":2165,"Ġsaf":2166,"Ġneighbor":2167,"epend":2168,"Ġtakes":2169,"sc":2170,"Ġear":2171,"Ġcomfort":2172,"Ġent":2173,"Ġrep":2174,"Ġperson":2175,"Ġsmiling":2176,"ĠWith":2177,"Ġgently":2178,"Ġpointed":2179,"Every":2180,"owed":2181,"Ġspo":2182,"col":2183,"Ġtasty":2184,"ular":2185,"ĠJimmy":2186,"Ġplane":2187,"sting":2188,"hin":2189,"Ġhoney":2190,"itch":2191,"Ġpill":2192,"Ġpass":2193,"itten":2194,"Ġmatter":2195,"Ġadm":2196,"Ġtasted":2197,"Ġsmelled":2198,"nic":2199,"ove":2200,"Ġeag":2201,"Ġshining":2202,"Hey":2203,"Ġhope":2204,"Ġplaces":2205,"Ġkick":2206,"ĠCh":2207,"Ġpicnic":2208,"Ġbottle":2209,"Ġrespect":2210,"Ġblew":2211,"Ġappeared":2212,"Ġsupp":2213,"Tommy":2214,"ĠCome":2215,"Ġspider":2216,"Ġintere":2217,"Ġcheer":2218,"board":2219,"Ġwearing":2220,"Ġpresent":2221,"ert":2222,"Ġmist":2223,"ize":2224,"Ġtrouble":2225,"Ġtrip":2226,"Ġpract":2227,"Ġkiss":2228,"Ġquest":2229,"ond":2230,"Ġash":2231,"Ġloves":2232,"Ġtightly":2233,"gg":2234,"arge":2235,"Ġsur":2236,"Ġspread":2237,"aur":2238,"Ġwide":2239,"ones":2240,"umber":2241,"Ġfeather":2242,"Ġsplas":2243,"ont":2244,"ndp":2245,"Ġlater":2246,"Ġwhole":2247,"Ġanyone":2248,"Ġbread":2249,"Molly":2250,"Ġdes":2251,"Ġrec":2252,"ella":2253,"Ġroad":2254,"In":2255,"Ġoce":2256,"Ġgiant":2257,"Ġocean":2258,"els":2259,"Ġpuzz":2260,"Ġcookie":2261,"Ġpan":2262,"Ġpath":2263,"ÅĵI":2264,"Ġconfused":2265,"Ġscreamed":2266,"Ġclouds":2267,"eb":2268,"Ġimpress":2269,"Ġfront":2270,"ĠGo":2271,"Ġseat":2272,"lex":2273,"Ġlay":2274,"Ġwhich":2275,"la":2276,"Ġthin":2277,"Ġteach":2278,"erly":2279,"Ġdi":2280,"Ġanswer":2281,"ungle":2282,"Ġap":2283,"ssed":2284,"hile":2285,"ub":2286,"Ġlarge":2287,"Ġjungle":2288,"Ġpromise":2289,"Ġser":2290,"Ġber":2291,"Ġwild":2292,"Ġbark":2293,"Ġmach":2294,"oose":2295,"Ġbutton":2296,"ndpa":2297,"Good":2298,"Ġmyster":2299,"Ġsnake":2300,"Ġvillage":2301,"Ġhor":2302,"ĠEmily":2303,"Come":2304,"Ġtool":2305,"Ġputs":2306,"Ġlast":2307,"Ġimag":2308,"ĠJake":2309,"Lucy":2310,"Ġtid":2311,"Ġban":2312,"lebr":2313,"Ġeventually":2314,"Ġslid":2315,"Ġwave":2316,"Ġlive":2317,"Ġchased":2318,"ĠEverywhere":2319,"Ġcelebr":2320,"Ġcrayons":2321,"Just":2322,"Ġspent":2323,"Ġwrite":2324,"Ġgives":2325,"unk":2326,"ife":2327,"Ġdecor":2328,"Ġfoot":2329,"Ġdelight":2330,"Ġsol":2331,"Ġsandw":2332,"Ġdirt":2333,"ĠJenny":2334,"Ġtalking":2335,"Ġtreats":2336,"Ġcart":2337,"ching":2338,"Ġwaiting":2339,"Ġhiding":2340,"Ġsnowman":2341,"Ġinteresting":2342,"Ġhon":2343,"ony":2344,"Ġshelf":2345,"Ġtaste":2346,"een":2347,"Jim":2348,"Ġstep":2349,"Mum":2350,"Ġhelpful":2351,"Ġfeet":2352,"Ġshy":2353,"Ġgoes":2354,"Ġval":2355,"Ġemb":2356,"Ġstood":2357,"Ġshr":2358,"Ġbuilding":2359,"Ġoven":2360,"Ġstret":2361,"Ġlovely":2362,"Ġducks":2363,"Ġcorner":2364,"Ġwash":2365,"cks":2366,"Ġspe":2367,"Ġpretended":2368,"Ġrolled":2369,"Ġrude":2370,"old":2371,"Ġcalm":2372,"Ġpile":2373,"Ġteeth":2374,"Ġjumping":2375,"Ġzoo":2376,"Ġpuddle":2377,"Ġtidy":2378,"Mama":2379,"iger":2380,"ipe":2381,"Ġbugs":2382,"Ġashamed":2383,"Ġbat":2384,"ina":2385,"ĠRe":2386,"Ġob":2387,"Ġstra":2388,"ĠSt":2389,"Ġwhistle":2390,"Ġbanan":2391,"not":2392,"Ġnet":2393,"Ġforgive":2394,"Ġprince":2395,"ener":2396,"Ġshirt":2397,"Ġsel":2398,"Ġcoo":2399,"Ġembar":2400,"umpy":2401,"Ġsparkly":2402,"Ġremind":2403,"Ġsug":2404,"Ġcross":2405,"Ġmind":2406,"Ġcannot":2407,"Ġsuccess":2408,"Ġembarra":2409,"Soon":2410,"Ġmot":2411,"Ġsharing":2412,"Ġworm":2413,"Ġfold":2414,"Ġpeaceful":2415,"Ġwore":2416,"Ġmountain":2417,"Ġblow":2418,"lice":2419,"Ġign":2420,"Ġbell":2421,"Ġfurry":2422,"Ġgrab":2423,"als":2424,"ometimes":2425,"Ġwhenever":2426,"Ġpour":2427,"vous":2428,"llie":2429,"Ġpush":2430,"Ġbreath":2431,"Ġmachine":2432,"Ġsugar":2433,"Ġchick":2434,"Ġcreative":2435,"St":2436,"ned":2437,"Ġbal":2438,"Ġstir":2439,"Ġdolp":2440,"Ġtries":2441,"Now":2442,"Ġlad":2443,"ĠLe":2444,"Ġmed":2445,"Ġpool":2446,"Ġgener":2447,"Ġsal":2448,"ork":2449,"ult":2450,"Ġspray":2451,"Ġship":2452,"ian":2453,"Ġhum":2454,"Ġhel":2455,"isa":2456,"Ġselfish":2457,"Ġhar":2458,"Ġfaces":2459,"Ġmessy":2460,"Ġ'":2461,"Ġple":2462,"ĠSome":2463,"ĠHow":2464,"Ġgold":2465,"Ġchocol":2466,"Please":2467,"Ġminutes":2468,"Ġpillow":2469,"My":2470,"aking":2471,"Ġtun":2472,"Ġmissed":2473,"ighed":2474,"Ġvan":2475,"Ġfixed":2476,"Ġfighting":2477,"oin":2478,"Ġfig":2479,"Ġembarrassed":2480,"Ġmeant":2481,"Ġdrive":2482,"Ġtomorrow":2483,"Ġhours":2484,"Ġca":2485,"Ġner":2486,"Ġspicy":2487,"Ġknowing":2488,"ĠPlease":2489,"Sarah":2490,"Ġladder":2491,"ital":2492,"Ġhorse":2493,"ato":2494,"Ġug":2495,"ĠJust":2496,"Ġtrust":2497,"Ġhosp":2498,"Ġugly":2499,"Ġhospital":2500,"Ġchew":2501,"Ġbedroom":2502,"Ġeasy":2503,"Ġnervous":2504,"Ġrob":2505,"Ġthankful":2506,"Ġcarrots":2507,"Dad":2508,"elly":2509,"Ġgrew":2510,"Ġcolour":2511,"Ġbarked":2512,"Ġcouch":2513,"Ġnut":2514,"Ġmeadow":2515,"Ġtaught":2516,"Ġunderstood":2517,"Ġdisappoin":2518,"Ġpas":2519,"ano":2520,"Ġoften":2521,"Ġclass":2522,"Ġpassed":2523,"Ġknocked":2524,"Ġlanded":2525,"Ġmic":2526,"ird":2527,"Ġfear":2528,"Ġcoin":2529,"Ġmud":2530,"work":2531,"Ġdeter":2532,"Ġreg":2533,"Ġreturned":2534,"Ġdeterm":2535,"Ġhur":2536,"Ġfinish":2537,"izz":2538,"Ġtea":2539,"Ġsmooth":2540,"mo":2541,"Ġstuff":2542,"Ġmov":2543,"Ġgenerous":2544,"To":2545,"ĠOn":2546,"isp":2547,"Ġdrum":2548,"obby":2549,"Ġbubbles":2550,"Ġrobot":2551,"Ġthese":2552,"Ġseed":2553,"Ġglass":2554,"Ġdisappointed":2555,"ground":2556,"Ġring":2557,"Ġcard":2558,"Ġhears":2559,"Ġcarried":2560,"Ġmoon":2561,"Ġchocolate":2562,"Ġleaf":2563,"Ġsnacks":2564,"Ġcirc":2565,"Ġfancy":2566,"dle":2567,"Ġspend":2568,"ĠAnn":2569,"ustr":2570,"Ġcrab":2571,"Ġsongs":2572,"pack":2573,"Ġpir":2574,"ecially":2575,"osaur":2576,"Ġsold":2577,"Ġbridge":2578,"ĠEven":2579,"Ġsleepy":2580,"Ġhonest":2581,"Ġmir":2582,"ĠBr":2583,"Ġpaw":2584,"pecially":2585,"Ġav":2586,"ĠWhy":2587,"izzy":2588,"Ġchest":2589,"Ġwolf":2590,"Ġdinosaur":2591,"Ġespecially":2592,"Ġmap":2593,"Ġgas":2594,"ory":2595,"Ġchange":2596,"Ġgroup":2597,"Ġgathered":2598,"Ġsour":2599,"Ġpoor":2600,"Ġsplash":2601,"Ġwaves":2602,"Ġforward":2603,"Ġclown":2604,"Ġmysterious":2605,"ror":2606,"Ġbody":2607,"Ġfrustr":2608,"Ġcraw":2609,"Ġfake":2610,"Ġpin":2611,"Ġok":2612,"Ġrad":2613,"Ġwhisp":2614,"Ġtwirl":2615,"Ġstring":2616,"Ġsmelly":2617,"ĠTogether":2618,"sist":2619,"Ġcand":2620,"Ġgate":2621,"Ġscar":2622,"ĠKitty":2623,"Ġneckl":2624,"Billy":2625,"Ġmotor":2626,"ying":2627,"ote":2628,"Ġshore":2629,"urse":2630,"Ġjew":2631,"Ġweak":2632,"Ġgrumpy":2633,"Ġfinger":2634,"Ġsack":2635,"Ġkitten":2636,"Ġpolite":2637,"Ġglue":2638,"uce":2639,"Ġnumber":2640,"airs":2641,"Ġesc":2642,"Ġmirror":2643,"Ġsheep":2644,"Ġvase":2645,"Ġplants":2646,"Ġberries":2647,"most":2648,"Be":2649,"den":2650,"Ġjelly":2651,"ĠTheir":2652,"Ġemp":2653,"itter":2654,"There":2655,"Ġscr":2656,"Ġgray":2657,"Ġpuzzle":2658,"Ġnecklace":2659,"Ġmaybe":2660,"Ġplate":2661,"Ġalmost":2662,"usie":2663,"Ġfrustrated":2664,"Ġempty":2665,"port":2666,"orry":2667,"Ġthick":2668,"Ġjam":2669,"Ġskipped":2670,"ensive":2671,"ĠTeddy":2672,"aged":2673,"Ġcloset":2674,"Ġhidden":2675,"Ġexpensive":2676,"Ġdetermined":2677,"Ġbored":2678,"Ġlit":2679,"Ġdrew":2680,"Ġlegs":2681,"Ġhopping":2682,"ates":2683,"ĠSometimes":2684,"Ġsticks":2685,"Ġones":2686,"ĠAt":2687,"Ġbirdie":2688,"ĠDon":2689,"Ġpolice":2690,"Ġfruits":2691,"Ġtick":2692,"Ġaunt":2693,"Ġwis":2694,"Ġbake":2695,"Ġline":2696,"ots":2697,"Ġstone":2698,"Ġdogs":2699,"aul":2700,"Ġfigure":2701,"Jane":2702,"Ġsight":2703,"Ġcries":2704,"ĠBe":2705,"Ġmoving":2706,"Ġcontent":2707,"ĠBrown":2708,"Ġsaved":2709,"Ġcloth":2710,"?\".":2711,"box":2712,"Ġbranches":2713,"Ġpacked":2714,"Ġpowerful":2715,"Ġsplashed":2716,"Ġfeed":2717,"ested":2718,"Ġyelled":2719,"Where":2720,"dge":2721,"kin":2722,"Ġtiger":2723,"Ġpay":2724,"iddle":2725,"oop":2726,"ĠBella":2727,"Ġexam":2728,"Ġtaken":2729,"Ġcrane":2730,"Ġspoil":2731,"'d":2732,"Ġhang":2733,"Ġflag":2734,"Ġanswered":2735,"Ġdiscovered":2736,"ĠLeo":2737,"ush":2738,"Ġsave":2739,"Ġseek":2740,"Ġexcite":2741,"Ġpray":2742,"Ġjog":2743,"Ġstanding":2744,"Ġdolphin":2745,"Ġjack":2746,"Are":2747,"era":2748,"rag":2749,"Ġflut":2750,"getable":2751,"Ġboring":2752,"Ġlock":2753,"Ġincred":2754,"Ġexcitement":2755,"Ġsighed":2756,"Ġwip":2757,"Ġfis":2758,"Ġfill":2759,"Ġsoap":2760,"ĠMum":2761,"ola":2762,"Ġpleased":2763,"Ġjacket":2764,"light":2765,"Ġsugg":2766,"Ġmiddle":2767,"Ġeld":2768,"Ġwrote":2769,"Ġballoons":2770,"Ġorganized":2771,"que":2772,"Ġsailed":2773,"Their":2774,"Ġtells":2775,"Ġoy":2776,"Ġstones":2777,"Ġboard":2778,"Ġspun":2779,"Ġvegetable":2780,"lies":2781,"Ġind":2782,"iness":2783,"Ġworking":2784,"lower":2785,"alk":2786,"iff":2787,"Ġparrot":2788,"Stop":2789,"Ġscarf":2790,"Ġwagged":2791,"Ġclap":2792,"Ġmeasure":2793,"asing":2794,"Ġtears":2795,"body":2796,"Ġcomfortable":2797,"Ġleg":2798,"Ġswan":2799,"Ġtrue":2800,"Ġfright":2801,"Ġdrop":2802,"Ġsmoke":2803,"Ġfeathers":2804,"Ġincredible":2805,"ggs":2806,"ual":2807,"Ġtie":2808,"Ġcap":2809,"Ġlose":2810,"Ġpus":2811,"Ġeager":2812,"Ġmovie":2813,"fic":2814,"Ġcop":2815,"Ġeggs":2816,"oof":2817,"Ġrid":2818,"Ġcovered":2819,"Ġfil":2820,"Ġlem":2821,"Ġgrap":2822,"Ġdisappeared":2823,"Ġrecord":2824,"ĠTV":2825,"ĠBl":2826,"Ġext":2827,"Ġord":2828,"Ġgiggled":2829,"corn":2830,"Ġpri":2831,"Ġham":2832,"Ġrare":2833,"Ġyourself":2834,"Ġeng":2835,"Ġwhale":2836,"Ġknife":2837,"ĠLisa":2838,"Ġteam":2839,"ĠJohnny":2840,"zed":2841,"Ġtest":2842,"Ġbone":2843,"Ġdizzy":2844,"Ġlibr":2845,"Ġwrap":2846,"Ġquestions":2847,"iv":2848,"Ġlying":2849,"Ġstamp":2850,"Ġlicked":2851,"Ġnoisy":2852,"Ġkindness":2853,"Ġdiffic":2854,"Ġdrawing":2855,"apping":2856,"Jimmy":2857,"Ġstraw":2858,"Ġburn":2859,"Ġwagon":2860,"ately":2861,"Ġgrown":2862,"Ġrocket":2863,"Ġpopcorn":2864,"Sally":2865,"Ġbatter":2866,"Ġwand":2867,"Ġanc":2868,"ĠEnd":2869,"Ġsword":2870,"Ġhappening":2871,"Ġlifted":2872,"Ġbalance":2873,"Ġextra":2874,"Sorry":2875,"ha":2876,"Ġwander":2877,"Ġfat":2878,"ĠMark":2879,"ĠElla":2880,"Ġbecome":2881,"Ġtrack":2882,"Ġsmaller":2883,"Ġmistake":2884,"Ġtoast":2885,"ating":2886,"Ġmanaged":2887,"selves":2888,"ĠPeter":2889,"Ġbathroom":2890,"Ġharm":2891,"Ġdifficult":2892,"Ġtwist":2893,"Ġoffered":2894,"Ġruined":2895,"Ġmatch":2896,"Ġancient":2897,"Ġgar":2898,"illi":2899,"Ġdistance":2900,"Ġplayground":2901,"Ġlazy":2902,"Ġdancing":2903,"Ġadventur":2904,"af":2905,"ĠBa":2906,"Ġcalling":2907,"Ġcleaned":2908,"Ġcrown":2909,"ormal":2910,"Ġonce":2911,"Ġboss":2912,"Ġsell":2913,"Ġwalks":2914,"Ġfrightened":2915,"erri":2916,"Ġmask":2917,"Ġfluffy":2918,"emo":2919,"ĠZ":2920,"Ġfrag":2921,"Ġdest":2922,"Ġnormal":2923,"Ġyog":2924,"Ġpicks":2925,"Ġeye":2926,"Ġdrank":2927,"Ġcircle":2928,"Ġadventurous":2929,"Spot":2930,"Ġtent":2931,"Ġpress":2932,"Ġkissed":2933,"ict":2934,"Ġsciss":2935,"Ġgets":2936,"Ġtrunk":2937,"Ġcheck":2938,"Ġenjoying":2939,"Ġshells":2940,"Ġelderly":2941,"Ġscissors":2942,"Ġterri":2943,"Ġtoug":2944,"ages":2945,"Ġsteal":2946,"Me":2947,"ready":2948,"ete":2949,"Ġalready":2950,"ĠLittle":2951,"Ġjuicy":2952,"Ġstudy":2953,"Ġhorn":2954,"erp":2955,"Ġpizz":2956,"Ġallig":2957,"Ġlouder":2958,"Ġtowel":2959,"Ġcircles":2960,"Ġlead":2961,"Ġroar":2962,"Ġrose":2963,"Ġslipped":2964,"Ġtele":2965,"Ġfamous":2966,"Ġarg":2967,"Ġcheerful":2968,"ĠRex":2969,"Ġtough":2970,"ipper":2971,"Ġbarn":2972,"Ġfool":2973,"Ġdig":2974,"Ġdish":2975,"Ġagainst":2976,"Ġdeer":2977,"Ġsweetie":2978,"Ġengine":2979,"Ġed":2980,"Ġfather":2981,"Ġcover":2982,"Ġyours":2983,"Ġneeds":2984,"Joe":2985,"Ġbags":2986,"Ġspinning":2987,"Sue":2988,"Ġaw":2989,"anged":2990,"amond":2991,"Ġyarn":2992,"oph":2993,"Ġgiving":2994,"Ġdiamond":2995,"Ġsandwich":2996,"Ġindepend":2997,"Ġfragile":2998,"Who":2999,"cept":3000,"Ġnosy":3001,"Ġtwig":3002,"Ġhurts":3003,"Ġsuggested":3004,"Ġlemon":3005,"iest":3006,"ination":3007,"orge":3008,"Ġnod":3009,"Ġbloom":3010,"Ġhose":3011,"Ġboxes":3012,"Ġrealised":3013,"Ġfrown":3014,"ache":3015,"Ġrelax":3016,"Ġhammer":3017,"Ġadded":3018,"Ġweird":3019,"Ġmod":3020,"Ġcrack":3021,"Ġalligator":3022,"Amy":3023,"Gra":3024,"oot":3025,"Ġshake":3026,"rage":3027,"Ġlearning":3028,"Ġvegetables":3029,"Ġadd":3030,"Ġmelt":3031,"ĠSusie":3032,"elp":3033,"ĠBobby":3034,"Ġtrap":3035,"Ġcollar":3036,"Ġstubb":3037,"ique":3038,"Ġborrow":3039,"Ġpump":3040,"Ġloudly":3041,"Ġsearch":3042,"Ġchicken":3043,"Ġpizza":3044,"Ġindependent":3045,"Ġstubborn":3046,"Ġref":3047,"Ġasking":3048,"Ġbrilli":3049,"Ġdecide":3050,"Ġflash":3051,"Ġcaterp":3052,"Ġqueen":3053,"Ġsnee":3054,"ĠRose":3055,"Ġinvited":3056,"Ġstrawber":3057,"Ġfoolish":3058,"Ġcaterpill":3059,"gy":3060,"Ġtur":3061,"Ġdepend":3062,"Ġguit":3063,"Ġstri":3064,"Ġknight":3065,"Ġboys":3066,"Ġpee":3067,"Ġcomb":3068,"Ġclear":3069,"Ġunique":3070,"Ġbuttons":3071,"ĠTweety":3072,"Ġcolourful":3073,"Ġescape":3074,"Ġbrilliant":3075,"Ġrich":3076,"ĠBu":3077,"Ġsaying":3078,"Ġrode":3079,"Ġskin":3080,"Ġgarage":3081,"Help":3082,"dom":3083,"Ġmummy":3084,"Ġbeak":3085,"ured":3086,"aw":3087,"eorge":3088,"rop":3089,"edient":3090,"Ġunus":3091,"Ġoyster":3092,"Ġturkey":3093,"ĠOK":3094,"Ġfountain":3095,"Ġpatter":3096,"Ġweek":3097,"Ġchase":3098,"Ġrubb":3099,"Ġcounted":3100,"Ġregular":3101,"Ġwiped":3102,"Ġguitar":3103,"Ġunusual":3104,"land":3105,"Ġumb":3106,"Ġfork":3107,"Ġshows":3108,"Ġlights":3109,"Ġwalls":3110,"Ġdreamed":3111,"Ġbanana":3112,"Ġsuccessful":3113,"Ġjewel":3114,"Ġpattern":3115,"Ġumbre":3116,"cil":3117,"ray":3118,"inal":3119,"Ġlow":3120,"imed":3121,"Ġswe":3122,"Ġcryst":3123,"Ġpencil":3124,"Ġsafely":3125,"Ġtools":3126,"Well":3127,"Ġtape":3128,"Ġstream":3129,"ceed":3130,"Ġresc":3131,"Ġabove":3132,"Ġharder":3133,"Ġguess":3134,"Ġbottom":3135,"Ġmarket":3136,"Ġimpressed":3137,"Ġwaff":3138,"anut":3139,"iginal":3140,"Ġnotice":3141,"illa":3142,"Ġnods":3143,"Ġpeanut":3144,"olog":3145,"Ġpatch":3146,"Ġcrawled":3147,"Ġcaterpillar":3148,"na":3149,"Ġtank":3150,"Ġtask":3151,"Ġtire":3152,"Ġgun":3153,"Ġload":3154,"Ġcompet":3155,"umbled":3156,"Ġapolog":3157,"Ġsolve":3158,"How":3159,"Mummy":3160,"fast":3161,"hip":3162,"ĠNo":3163,"Ġbitter":3164,"arl":3165,"Ġears":3166,"Ġshone":3167,"Ġbrush":3168,"ĠFin":3169,"Ġoriginal":3170,"Ġfier":3171,"Ġglow":3172,"ĠNemo":3173,"Ġbreakfast":3174,"Ġadmired":3175,"ĠBlue":3176,"Ġedge":3177,"Ġdependable":3178,"und":3179,"uth":3180,"ĠIf":3181,"Ġclay":3182,"Ġstronger":3183,"Ġbossy":3184,"Ġcudd":3185,"aser":3186,"Ġgrandpa":3187,"Ġknows":3188,"Ġpicking":3189,"Ġjoke":3190,"Ġboats":3191,"Ġbald":3192,"Ġmedic":3193,"Ġscrat":3194,"Ġcone":3195,"Ġpenny":3196,"Ġlean":3197,"Ġraft":3198,"uggled":3199,"Ġsucceed":3200,"Ġobedient":3201,"Ġhumble":3202,"Ġlibrary":3203,"Re":3204,"head":3205,"Ġph":3206,"Ġnumb":3207,"Ġsauce":3208,"ĠBear":3209,"Ġtray":3210,"Ġproudly":3211,"Here":3212,"Ġsounded":3213,"Ġsquare":3214,"Ġterrible":3215,"Ġcrystal":3216,"Ġfierce":3217,"Jill":3218,"Ġwitch":3219,"inary":3220,"Ġhappiness":3221,"ĠLola":3222,"Ġhanded":3223,"Ġfridge":3224,"fa":3225,"Ġrough":3226,"ention":3227,"Ġchanged":3228,"Ġjoined":3229,"Ġraven":3230,"Ġmighty":3231,"Ġchose":3232,"Ġwheel":3233,"Ġumbrella":3234,"Ġtag":3235,"Ġcri":3236,"Ġow":3237,"arry":3238,"imp":3239,"ĠBill":3240,"Ġhelps":3241,"Ġfinding":3242,"Ġcleaning":3243,"Ġsquee":3244,"Ġfirework":3245,"Ġmedicine":3246,"azz":3247,"met":3248,"Ġplayful":3249,"Ġlocked":3250,"Ġgoat":3251,"Ġaccept":3252,"Ġcompass":3253,"Ġsurf":3254,"Ġcompetit":3255,"ext":3256,"kn":3257,"Ġsy":3258,"Ġsil":3259,"Ġbeet":3260,"ĠMar":3261,"uring":3262,"Ġchir":3263,"ĠEllie":3264,"Ġballs":3265,"ÅĵLet":3266,"Ġbutterflies":3267,"Ġguard":3268,"Ġcrayon":3269,"Ġdiscover":3270,"Ġparade":3271,"Ġmixed":3272,"Ġvalu":3273,"Ġhelmet":3274,"ĠBrownie":3275,"Em":3276,"ject":3277,"squ":3278,"ud":3279,"Ġgum":3280,"ature":3281,"Ġisland":3282,"Ġcost":3283,"Ġmole":3284,"Ġnicely":3285,"Ġkinds":3286,"Ġraced":3287,"Ġstove":3288,"Ġlaughs":3289,"Ġmarch":3290,"Ġfalls":3291,"Ġpersist":3292,"ĠBaby":3293,"ophie":3294,"Alice":3295,"ience":3296,"ito":3297,"Ġcage":3298,"Ġgoose":3299,"Ġcoins":3300,"Ġtrump":3301,"Ġmosqu":3302,"Ġserious":3303,"Ġmosquito":3304,"Ġflex":3305,"Ġcro":3306,"elon":3307,"Ġexcla":3308,"Ġchoose":3309,"Ġexplored":3310,"Ġunl":3311,"Ġbrothers":3312,"Ġguil":3313,"Ġnumbers":3314,"Ġtrumpet":3315,"Ġicy":3316,"Ġmoms":3317,"iew":3318,"Ġview":3319,"Ġenorm":3320,"Ġfireman":3321,"ĠMrs":3322,"Ġpractice":3323,"Ġenormous":3324,"wards":3325,"Ġsup":3326,"Ġvolc":3327,"Ġmeans":3328,"Ġpointing":3329,"Ġvaluable":3330,"Ġflexible":3331,"Ġexclaimed":3332,"Ġguilty":3333,"yal":3334,"Ġcam":3335,"Ġpipe":3336,"ision":3337,"ĠMy":3338,"Ġuseful":3339,"Ġfavour":3340,"Ġcrazy":3341,"Ġphot":3342,"known":3343,"Ġvolcano":3344,"Ġwake":3345,"Ġcity":3346,"omed":3347,"llip":3348,"Ġforth":3349,"Ġlollip":3350,"Ġseal":3351,"Ġallowed":3352,"Ġscare":3353,"Ġbrightly":3354,"Ġmarble":3355,"Ġpopular":3356,"Ġflashlight":3357,"Ġcompassion":3358,"Ġlollipop":3359,"ĠU":3360,"Ġing":3361,"Ġhunt":3362,"Ġdull":3363,"erry":3364,"Ġstat":3365,"Ġshel":3366,"!\".":3367,"Ġunknown":3368,"Ġhats":3369,"Ġshoot":3370,"redient":3371,"Ġbelonged":3372,"Ġfavourite":3373,"Ġingredient":3374,"Ġpil":3375,"Ġloyal":3376,"Ġbrace":3377,"ĠWhenever":3378,"Ġdreams":3379,"Ġkicked":3380,"Ġseeds":3381,"Ġtwirled":3382,"Ġsuper":3383,"time":3384,"Ġfine":3385,"Ġbees":3386,"Ġsofa":3387,"Ġshark":3388,"ĠMike":3389,"Ġanx":3390,"Ġsadly":3391,"Ġshowing":3392,"Ġways":3393,"Ġtrucks":3394,"Ġdelicate":3395,"ations":3396,"Ġrepe":3397,"Ġimpressive":3398,"Ġpoured":3399,"Ġpirate":3400,"Ġwhispered":3401,"Ġharmless":3402,"aff":3403,"Ġturt":3404,"Ġtied":3405,"aroo":3406,"ado":3407,"arth":3408,"Ġgrace":3409,"Ġhandle":3410,"Ġenc":3411,"Ġdeliver":3412,"Benny":3413,"Ġrushed":3414,"Ġusing":3415,"angaroo":3416,"Ġshape":3417,"Ġbushes":3418,"Ġpersistent":3419,"Ġgor":3420,"ĠSp":3421,"Ġkangaroo":3422,"Ġang":3423,"Ġoffice":3424,"Ġanxious":3425,"Go":3426,"alous":3427,"Ġspell":3428,"ĠWhile":3429,"iable":3430,"Ġpotato":3431,"Ġjealous":3432,"Ġwrapped":3433,"Ġfour":3434,"Ġcurt":3435,"Ġlog":3436,"Ġcoal":3437,"Ġreliable":3438,"Ġcurtain":3439,"Daisy":3440,"Ġsudden":3441,"mbol":3442,"ÅĵYes":3443,"aches":3444,"ĠPe":3445,"Ġpainted":3446,"ĠToby":3447,"Ġcere":3448,"gu":3449,"Ġtummy":3450,"Ġthose":3451,"ouses":3452,"uddy":3453,"Ġcush":3454,"Ġmetal":3455,"Ġsymbol":3456,"Ġbeetle":3457,"Ġcamera":3458,"Ġhouses":3459,"ilt":3460,"Ġcelebrate":3461,"Ġdelighted":3462,"Ġgorilla":3463,"Ġtooth":3464,"Ġthirst":3465,"keep":3466,"Ġshiver":3467,"Ġreward":3468,"Ġspace":3469,"Ġtravel":3470,"Ġrubbed":3471,"Ġprint":3472,"Ġdriving":3473,"Ġmarry":3474,"Ġwarned":3475,"Ġsoldier":3476,"Ġmotorcy":3477,"cut":3478,"Ġson":3479,"Ġtor":3480,"arlie":3481,"Ġhero":3482,"ief":3483,"Ġcarp":3484,"Ġexcitedly":3485,"Ġtemp":3486,"ĠPete":3487,"ĠBobo":3488,"cod":3489,"Ġhung":3490,"Ġgrowing":3491,"upid":3492,"Ġthinking":3493,"Ġtunn":3494,"While":3495,"cu":3496,"ipp":3497,"Ġhay":3498,"Ġyet":3499,"Ġvine":3500,"Ġacorn":3501,"icycle":3502,"Ġprep":3503,"Ġreminded":3504,"Ġgasped":3505,"Ġflute":3506,"Ġordinary":3507,"Ġcrocod":3508,"Ġamb":3509,"Ġcur":3510,"ĠBet":3511,"ĠMandy":3512,"Ġpup":3513,"Ġcreatures":3514,"Ġhurry":3515,"Ġspoiled":3516,"Ġtimes":3517,"Ġmis":3518,"Ġrice":3519,"Ġstupid":3520,"Ġshine":3521,"Ġresist":3522,"ugged":3523,"Ġlaw":3524,"Ġskull":3525,"coa":3526,"Ġmissing":3527,"Ġwheat":3528,"Ġsupport":3529,"Ġingredients":3530,"aid":3531,"loo":3532,"Ġcase":3533,"ery":3534,"Ġwashed":3535,"Ġdove":3536,"Ġspilled":3537,"Ġscoot":3538,"Ġmeal":3539,"Ġmule":3540,"ĠDucky":3541,"Ġmoder":3542,"arsh":3543,"ÅĵWhat":3544,"Ġtrick":3545,"Ġsett":3546,"ĠTweetie":3547,"Ġbounce":3548,"Ġfilthy":3549,"Ġbase":3550,"Ġhoop":3551,"Ġfre":3552,"Ġstumbled":3553,"Ġsoar":3554,"Ġweal":3555,"Ġseem":3556,"Ġword":3557,"Ġlab":3558,"ĠDave":3559,"ĠFr":3560,"Ġbadly":3561,"Ġhairy":3562,"Ġcrawl":3563,"Ġlively":3564,"Ġsteps":3565,"ÅĵLetÃ¢":3566,"Ġbracelet":3567,"Ġcereal":3568,"Ġthirsty":3569,"Ġcarpet":3570,"Ġwool":3571,"ither":3572,"Ġgoal":3573,"Ġbackpack":3574,"Ġtruth":3575,"Ġcompl":3576,"Ġcheap":3577,"Ġdisg":3578,"Ġplaced":3579,"Ġearly":3580,"Ġdecorate":3581,"Ġnuts":3582,"Ow":3583,"cream":3584,"Ġbump":3585,"Ġthemselves":3586,"ices":3587,"Ġhelpless":3588,"Ġclum":3589,"Ġscatter":3590,"Ġscale":3591,"Ġnews":3592,"usting":3593,"Ġenv":3594,"âĤ¬âĢ":3595,"Ġtelling":3596,"Ġswinging":3597,"Ġsparkled":3598,"Ġcarrying":3599,"gging":3600,"ines":3601,"ric":3602,"Ġfriendship":3603,"Ġcareless":3604,"Ġsne":3605,"Ġdoesn":3606,"Ġfalling":3607,"Ġcomput":3608,"Ġpale":3609,"Ġpeeked":3610,"Ġcompassionate":3611,"com":3612,"vice":3613,"Ġsend":3614,"Ġstage":3615,"Ġmem":3616,"Ġchalk":3617,"Ġchasing":3618,"Ġpebble":3619,"ĠEverything":3620,"Ġcube":3621,"Ġpige":3622,"Ġcourage":3623,"Ġfingers":3624,"Ġturtle":3625,"bled":3626,"Ġsink":3627,"Ġbicycle":3628,"Ġshaking":3629,"Ġsleeping":3630,"Ġneighbour":3631,"Ġmodern":3632,"Ġdisgusting":3633,"Ġclumsy":3634,"gest":3635,"Ġhook":3636,"Ġcher":3637,"Ġnail":3638,"Ġbiggest":3639,"iches":3640,"Ġbul":3641,"Ġending":3642,"Ġdead":3643,"Ġtriang":3644,"ulance":3645,"Ġspoke":3646,"Ġpracticed":3647,"Ġambulance":3648,"Ġcomputer":3649,"ibb":3650,"Ġlamp":3651,"Ġstation":3652,"Ġchar":3653,"Ġwallet":3654,"ĠToday":3655,"Ġpackage":3656,"Ġmicrop":3657,"Ġcushion":3658,"keeper":3659,"Ġcrocodile":3660,"Ġmicrophone":3661,"under":3662,"ĠAlex":3663,"Ġthoughtful":3664,"Ġjolly":3665,"Ġpengu":3666,"Ġpumpkin":3667,"Ġcostum":3668,"Ġfive":3669,"Ġdough":3670,"Ġpony":3671,"Ġol":3672,"imi":3673,"Ġstairs":3674,"Ġknock":3675,"Ġgrand":3676,"Ġintell":3677,"Ġuniver":3678,"Ġbrighter":3679,"Ġopens":3680,"Ġdreaming":3681,"Ġbounced":3682,"Ġquestion":3683,"Ġstatue":3684,"Ġwine":3685,"isk":3686,"ĠAlice":3687,"Ġcocoa":3688,"ĠYour":3689,"Ġpepper":3690,"Ġbeauty":3691,"Ġperm":3692,"Ġpainting":3693,"Ġshoe":3694,"Ġelev":3695,"Everyone":3696,"hino":3697,"Ġwealthy":3698,"Ġintellig":3699,"noon":3700,"Ġsuit":3701,"Ġmild":3702,"Ġnature":3703,"ans":3704,"Ġhappier":3705,"Ġneat":3706,"Ġstarts":3707,"ucked":3708,"Ġafternoon":3709,"Ġtorn":3710,"Ġelevator":3711,"gen":3712,"ti":3713,"Ġten":3714,"Ġharsh":3715,"Ġped":3716,"atient":3717,"orant":3718,"Ġrece":3719,"Ġjet":3720,"illie":3721,"ĠRed":3722,"Ġreading":3723,"Ġsearching":3724,"Ġbasketball":3725,"Ġbarber":3726,"Ġspeed":3727,"See":3728,"awn":3729,"Ġstack":3730,"ĠMummy":3731,"Ġclock":3732,"ĠGive":3733,"Ġmagn":3734,"Ġleaving":3735,"Ġcupboard":3736,"Ġdesign":3737,"Ġslides":3738,"Ġsandwiches":3739,"Ġcandle":3740,"aulif":3741,"Ġriding":3742,"Ġfresh":3743,"oppy":3744,"Ġshocked":3745,"Ġener":3746,"Ġjumps":3747,"Ġhaircut":3748,"Ġrespectful":3749,"Ġcooking":3750,"Ġticket":3751,"Ġencou":3752,"Ġtunnel":3753,"auliflower":3754,"Give":3755,"Ġsle":3756,"reen":3757,"Ġmay":3758,"Ġthief":3759,"Ġyawn":3760,"Ġfort":3761,"Ġalert":3762,"Ġsorts":3763,"Ġimpatient":3764,"Ġcreate":3765,"ailable":3766,"Ġwheels":3767,"Ġvalue":3768,"Ġprize":3769,"Mary":3770,"ye":3771,"het":3772,"Ġsent":3773,"Ġbent":3774,"ince":3775,"Ġcomet":3776,"Ġcamp":3777,"Ġcauliflower":3778,"Ġmelon":3779,"Ġgem":3780,"Ġitself":3781,"iron":3782,"Ġmush":3783,"Ġmonkeys":3784,"Ġsalad":3785,"Ġdestro":3786,"Ġrescue":3787,"Ġscooter":3788,"Ġintelligent":3789,"az":3790,"Ġdug":3791,"iling":3792,"anger":3793,"Ġroof":3794,"Ġrhino":3795,"Ġscold":3796,"aghet":3797,"Ġexper":3798,"Ġbarking":3799,"Ġbananas":3800,"Ġignorant":3801,"Ġmicro":3802,"Ġavailable":3803,"Ġgraceful":3804,"Ġmotorcycle":3805,"aghetti":3806,"hood":3807,"ĠSn":3808,"Ġearth":3809,"Ġboots":3810,"Ġspaghetti":3811,"ummer":3812,"Ġagree":3813,"Ġbull":3814,"Ġanywhere":3815,"ĠGeorge":3816,"Ġbehave":3817,"ĠKim":3818,"Ġpaid":3819,"scope":3820,"Ġstretched":3821,"Ġfearful":3822,"Ġavo":3823,"Ġmicroscope":3824,"If":3825,"io":3826,"Ġnoteb":3827,"ĠEventually":3828,"Ġolder":3829,"Ġsniff":3830,"Ġadvice":3831,"Ġstops":3832,"Ġperform":3833,"Ġfurther":3834,"Ġenvious":3835,"Ġpigeon":3836,"Ġmushroom":3837,"Ġnotebook":3838,"ubby":3839,"Ġpun":3840,"ats":3841,"Ġnurse":3842,"orable":3843,"Ġthunder":3844,"Ġclapping":3845,"Ġvide":3846,"Ġbuilt":3847,"ĠCl":3848,"Ġuncom":3849,"Ġshouting":3850,"Ġarrow":3851,"Ġdrawer":3852,"Ġprov":3853,"fortable":3854,"Ġtomato":3855,"Ġmeeting":3856,"Ġobject":3857,"Ġyogurt":3858,"Ġtemple":3859,"Ġuncomfortable":3860,"ef":3861,"ues":3862,"ĠTony":3863,"Ġloop":3864,"Ġchubby":3865,"Ġswitch":3866,"Ġskip":3867,"Ġadorable":3868,"ÅĵIt":3869,"Ġcounting":3870,"Ġcooked":3871,"Ġpist":3872,"arian":3873,"enry":3874,"Ġstared":3875,"Ġshut":3876,"icop":3877,"Ġquite":3878,"Ġsnuggled":3879,"ĠGrandpa":3880,"Ġtroubled":3881,"Ġgiggle":3882,"Ġblowing":3883,"Ġhelicop":3884,"Ġfisher":3885,"Ġpistol":3886,"Ġhelicopter":3887,"par":3888,"ĠSophie":3889,"ooped":3890,"ips":3891,"Ġnowhere":3892,"Ġforgave":3893,"Ġmarched":3894,"Ġtreasures":3895,"host":3896,"Ġpassport":3897,"Ġstirred":3898,"Ġpushing":3899,"Ġcompetitive":3900,"Ġdestroy":3901,"Yay":3902,"aked":3903,"oe":3904,"tter":3905,"Ġgir":3906,"Ġghost":3907,"anic":3908,"kelet":3909,"htub":3910,"Ġreef":3911,"Ġsepar":3912,"opard":3913,"play":3914,"Ġenvel":3915,"Ġbreat":3916,"Ġrepair":3917,"Ġfootball":3918,"Ġbathtub":3919,"Ġrubber":3920,"Ġangel":3921,"Ġtriangle":3922,"Ġled":3923,"Ġmill":3924,"ĠSh":3925,"chanic":3926,"Ġnames":3927,"Ġleopard":3928,"Ġnobody":3929,"Ġanyway":3930,"uct":3931,"ctus":3932,"Ġshouldn":3933,"Ġzeb":3934,"Ġgiven":3935,"Ġholds":3936,"Ġbarrel":3937,"Ġbandage":3938,"Ġenth":3939,"Daddy":3940,"Ġzebra":3941,"ives":3942,"ube":3943,"year":3944,"Ġpor":3945,"Ġpand":3946,"Ġotter":3947,"Ġribb":3948,"Ġshield":3949,"Ġmechanic":3950,"ĠdonÃ¢":3951,"Ġdisag":3952,"Ġdisplay":3953,"Ġmusician":3954,"ceros":3955,"Ġspeak":3956,"Ġcab":3957,"Ġcactus":3958,"ĠBetsy":3959,"Ġbulb":3960,"Ch":3961,"eath":3962,"ikes":3963,"xy":3964,"Ġtube":3965,"Ġahead":3966,"Ġsummer":3967,"Ġskelet":3968,"Ġpurse":3969,"Ġknob":3970,"ĠdidnÃ¢":3971,"ĠcouldnÃ¢":3972,"Ġcolours":3973,"Ġwindows":3974,"oomy":3975,"Ġgifted":3976,"Ġcartoon":3977,"Ġrhinoceros":3978,"gl":3979,"heart":3980,"Ġsize":3981,"Ġbet":3982,"ĠMiss":3983,"Ġscrew":3984,"Ġflour":3985,"Ġblin":3986,"apa":3987,"Ġdishes":3988,"Ġraining":3989,"Ġhoping":3990,"Ġshovel":3991,"Ġmint":3992,"Ġjellyfish":3993,"Ġsweater":3994,"Ġcharming":3995,"Ġpenguin":3996,"Ġenvelope":3997,"Ġenthus":3998,"Ġcabin":3999,"rec":4000,"Ġpant":4001,"Ġthread":4002,"Ġinse":4003,"Ġstaff":4004,"Ġliz":4005,"Ġunpack":4006,"Ġwriting":4007,"Ġtrash":4008,"Ġrolling":4009,"Ġwaffle":4010,"Ġiron":4011,"Ġwing":4012,"erable":4013,"Ġsheet":4014,"ĠBuddy":4015,"Ġshadow":4016,"Ġroared":4017,"Ġmuff":4018,"Ġairport":4019,"Ġceiling":4020,"Ġattic":4021,"Ġorganize":4022,"Ġstretch":4023,"Ġgrapes":4024,"Ġobs":4025,"ĠAre":4026,"ĠWould":4027,"ĠInst":4028,"Ġpiano":4029,"Ġsalt":4030,"Ġmiserable":4031,"Ġcord":4032,"Ġdess":4033,"Ġrefused":4034,"Ġscreen":4035,"ĠDan":4036,"Ġstrugg":4037,"Ġneedle":4038,"Ġbears":4039,"ĠAndy":4040,"Ġheaded":4041,"Ġsticky":4042,"Ġfreez":4043,"Ġzoomed":4044,"Ġimagined":4045,"Ġmedal":4046,"Ġmagnet":4047,"reci":4048,"Ġobser":4049,"Ġer":4050,"Ġlives":4051,"ĠAl":4052,"ĠPat":4053,"Ġappreci":4054,"asses":4055,"Ġsailor":4056,"Ġminute":4057,"Ġfisherman":4058,"vision":4059,"Ġrat":4060,"aled":4061,"Ġbrus":4062,"Ġchance":4063,"Ġpost":4064,"Ġsungl":4065,"Ġcheek":4066,"reeze":4067,"Ġdeaf":4068,"Ġrules":4069,"Ġfrogs":4070,"Ġairpl":4071,"ĠGod":4072,"Ġstrawberry":4073,"Ġslept":4074,"Ġlizard":4075,"Ġsunglasses":4076,"Ġluck":4077,"Ġinf":4078,"Ġbeep":4079,"ĠBunny":4080,"Ġmeas":4081,"Ġrod":4082,"Ġorder":4083,"Ġrestless":4084,"Ġsandbox":4085,"Ġmessage":4086,"ĠJoey":4087,"Ġcomplet":4088,"Ġattract":4089,"Ġgolden":4090,"Grandma":4091,"Ġpilot":4092,"Ġporch":4093,"Little":4094,"ler":4095,"ses":4096,"Ġwire":4097,"ĠSu":4098,"Ġshade":4099,"ĠMimi":4100,"inde":4101,"Ġsomewhere":4102,"Ġlaund":4103,"apers":4104,"aused":4105,"Ġstranger":4106,"Ġimpro":4107,"Ġstickers":4108,"Ġperfectly":4109,"Ġvend":4110,"Ġspring":4111,"Ġadmire":4112,"ĠCharlie":4113,"Ġbattery":4114,"Ġsilver":4115,"Ġpanda":4116,"Ġlaundry":4117,"Ġbikes":4118,"Ġcards":4119,"Ġreinde":4120,"Ġputting":4121,"Ġbuzz":4122,"Ġcats":4123,"Ġtrop":4124,"Ġgloomy":4125,"Ġtrave":4126,"Ġwishes":4127,"Ġtelevision":4128,"gn":4129,"house":4130,"une":4131,"urb":4132,"mand":4133,"Ġended":4134,"ÅĵYou":4135,"Ġlistening":4136,"Ġtowers":4137,"Ġsweetheart":4138,"Ġsteak":4139,"Ġpretending":4140,"Ġincl":4141,"Ġpressed":4142,"Ġenergy":4143,"Ġskeleton":4144,"Ġtrophy":4145,"Jenny":4146,"men":4147,"edy":4148,"Ġhall":4149,"Ġreco":4150,"ecause":4151,"opus":4152,"Ġcob":4153,"ĠLook":4154,"axi":4155,"Ġevening":4156,"Ġtricks":4157,"Ġplanet":4158,"Ġpetals":4159,"Ġletters":4160,"Ġapologized":4161,"ĠMaria":4162,"Ġchirp":4163,"Ġinsect":4164,"ĠInstead":4165,"Ġdessert":4166,"Ġhut":4167,"ison":4168,"ĠHere":4169,"Ġweigh":4170,"Ġkitty":4171,"htray":4172,"Ġashtray":4173,"Ġpole":4174,"Ġexplain":4175,"Ġmagaz":4176,"Ġsoftly":4177,"ctory":4178,"Ġstud":4179,"Ġvendor":4180,"Ġcobw":4181,"come":4182,"night":4183,"Ġax":4184,"Ġwife":4185,"Ġdive":4186,"Ġpit":4187,"Ġpad":4188,"Ġpages":4189,"Ġhalf":4190,"Ġmeat":4191,"Ġnewsp":4192,"Ġpeek":4193,"Ġholes":4194,"Ġsort":4195,"Ġsunf":4196,"Ġuncle":4197,"Ġforgotten":4198,"Ġpolish":4199,"Ġdisturb":4200,"Ġleaned":4201,"Ġshelter":4202,"cast":4203,"eve":4204,"zzy":4205,"Ġaer":4206,"ilet":4207,"Ġpeach":4208,"Ġeaten":4209,"Ġsunset":4210,"Ġquar":4211,"Ġrub":4212,"Ġsandcast":4213,"Ġmarried":4214,"Ġminer":4215,"Ġhunter":4216,"Ġaxe":4217,"ipping":4218,"Ġtoilet":4219,"Ġdust":4220,"Ġrug":4221,"Ġhadn":4222,"unately":4223,"hero":4224,"opl":4225,"Ġworth":4226,"Ġblueber":4227,"Ġbaking":4228,"Ġcups":4229,"Ġdistant":4230,"Ġpirates":4231,"happy":4232,"Ġsuperhero":4233,"Ġrecogn":4234,"Ġaeropl":4235,"uby":4236,"Ġtaxi":4237,"Ġlid":4238,"Ġinsist":4239,"ills":4240,"urch":4241,"ĠWill":4242,"Ġfactory":4243,"Ġgrabs":4244,"Ġclosel":4245,"ÅĵThat":4246,"ected":4247,"Ġunhappy":4248,"ĠPapa":4249,"Ġzip":4250,"Ġpasta":4251,"Ġradish":4252,"Ġstrip":4253,"âĤ¬âĢľ":4254,"Ġfreezer":4255,"Ġairplane":4256,"Ġattractive":4257,"Ġclosely":4258,"Ġtut":4259,"Ġfu":4260,"Ġlend":4261,"Ġpine":4262,"ĠTed":4263,"Ġitch":4264,"alley":4265,"ĠWh":4266,"Ġfinds":4267,"Ġsnap":4268,"Ġtrail":4269,"Ġshouts":4270,"Ġfields":4271,"Ġcelebrated":4272,"Ġsprayed":4273,"aws":4274,"Ġmarbles":4275,"Ġvideo":4276,"Ġinfant":4277,"ween":4278,"Ġtub":4279,"Ġbur":4280,"Ġcell":4281,"Ġyach":4282,"Ġweather":4283,"ĠBun":4284,"Ġshort":4285,"Ġvalley":4286,"Ġpopped":4287,"astic":4288,"Ġclimbing":4289,"Ġdiscu":4290,"Ġlightning":4291,"Ġsurround":4292,"Ġgrape":4293,"Emma":4294,"ffe":4295,"mm":4296,"right":4297,"Ġhipp":4298,"Ġmama":4299,"Ġoct":4300,"ĠSm":4301,"Ġstom":4302,"stic":4303,"seum":4304,"iform":4305,"Ġmuseum":4306,"ĠFred":4307,"Ġuniform":4308,"Thanks":4309,"Ġdrawings":4310,"Ġcountry":4311,"Ġmodest":4312,"Ġphoto":4313,"Ġscolded":4314,"Ġblinked":4315,"Ġyacht":4316,"ffee":4317,"Ġoctopus":4318,"Qu":4319,"Ġig":4320,"Ġtap":4321,"Ġbreeze":4322,"Ġpow":4323,"Ġoak":4324,"ari":4325,"Ġrever":4326,"Ġkneel":4327,"iastic":4328,"Ġdelay":4329,"Ġappl":4330,"Ġcooler":4331,"Ġvisited":4332,"Ġprevent":4333,"Ġbelt":4334,"Ġattention":4335,"Ġinvest":4336,"Ġenthusiastic":4337,"Ġigloo":4338,"Eventually":4339,"Ġwigg":4340,"Ġpair":4341,"ories":4342,"stairs":4343,"icer":4344,"Ġcoffee":4345,"robe":4346,"osie":4347,"Ġthrowing":4348,"Ġpuddles":4349,"Ġkingdom":4350,"Ġentered":4351,"ggy":4352,"Today":4353,"Ġpaws":4354,"Ġreindeer":4355,"Ġtoes":4356,"erc":4357,"ĠHarry":4358,"amber":4359,"Ġyield":4360,"una":4361,"Ġflame":4362,"Ġchecked":4363,"Ġconf":4364,"Ġframe":4365,"Ġdear":4366,"Ġsteam":4367,"Ġlions":4368,"Ġsplit":4369,"Ġnapkin":4370,"Ġsecond":4371,"ival":4372,"Ġquarrel":4373,"Ġhippo":4374,"Ġinvestig":4375,"Ġur":4376,"Ġrise":4377,"stri":4378,"chie":4379,"Ġanch":4380,"Ġspir":4381,"agg":4382,"Ġchain":4383,"Ġvest":4384,"Ġraz":4385,"Ġzipper":4386,"Ġdesk":4387,"Ġradio":4388,"Ġpushes":4389,"Ġcostume":4390,"Ġmath":4391,"Ġpapers":4392,"Ġeither":4393,"Ġexerc":4394,"Ġclub":4395,"Ġclaws":4396,"ĠWhere":4397,"Ġchamber":4398,"Ġgreedy":4399,"Ġsprink":4400,"Ġjournal":4401,"Ġants":4402,"aurant":4403,"Ġunlock":4404,"Ġbaseball":4405,"sing":4406,"Ġtucked":4407,"Ġsuff":4408,"omas":4409,"Ġvi":4410,"Ġdancer":4411,"Ġsquash":4412,"Ġcrow":4413,"Ġrestaurant":4414,"Ġwinter":4415,"Ġbouncing":4416,"Ġargue":4417,"Ġcomplain":4418,"Ġtutor":4419,"Ġanchor":4420,"hic":4421,"Ġmug":4422,"Ġpal":4423,"Ġostri":4424,"any":4425,"Ġlie":4426,"Ġstarting":4427,"place":4428,"ups":4429,"Ġvehic":4430,"Ġstuffed":4431,"Ġcricket":4432,"Ġavoc":4433,"Ġbetween":4434,"Ġpants":4435,"Ġinvestigate":4436,"Ha":4437,"Ġsince":4438,"Ġwaving":4439,"Ġfest":4440,"Ġhedge":4441,"Ġegg":4442,"ĠIÃ¢":4443,"ĠJess":4444,"Ġleash":4445,"Ġranch":4446,"Ġchurch":4447,"Ġflapped":4448,"Ġshoulder":4449,"Ġmaze":4450,"Ġpulls":4451,"olin":4452,"Ġsigns":4453,"Ġimagination":4454,"Ġexperience":4455,"ĠSmith":4456,"Ġspirit":4457,"osed":4458,"Ġbother":4459,"Ġfurn":4460,"iture":4461,"ero":4462,"omes":4463,"ides":4464,"Ġsaus":4465,"Ġreve":4466,"Your":4467,"Ġseeing":4468,"Ġflood":4469,"uckily":4470,"Ġbury":4471,"Ġpoke":4472,"Ġslipper":4473,"Ġgrin":4474,"Ġjeep":4475,"Ġcows":4476,"Ġfrowned":4477,"Ġnewspaper":4478,"Ġrazor":4479,"Ġpalace":4480,"Ġfurniture":4481,"Ġslippery":4482,"Ġbin":4483,"Ġcared":4484,"Ġcree":4485,"Ġink":4486,"ents":4487,"ĠMay":4488,"ĠMillie":4489,"Ġtwink":4490,"ionary":4491,"ĠPolly":4492,"Ġtripped":4493,"Ġthanks":4494,"medi":4495,"Ġwelcomed":4496,"Ġbeef":4497,"Ġbelongs":4498,"Ġkisses":4499,"Ġberry":4500,"Ġimagine":4501,"Ġclassroom":4502,"Ġpinch":4503,"ictionary":4504,"Ġpotatoes":4505,"Ġsunflower":4506,"aggie":4507,"Ġcreek":4508,"ron":4509,"Ġdictionary":4510,"ĠJu":4511,"Ġalive":4512,"Ġtrains":4513,"Ġdemand":4514,"Ġart":4515,"Ġcrash":4516,"Ġmustache":4517,"ĠChr":4518,"Ġmodel":4519,"mediately":4520,"nie":4521,"ckey":4522,"Ġgolf":4523,"Ġspear":4524,"ssible":4525,"antly":4526,"Ġhockey":4527,"Ġcounter":4528,"Ġsailing":4529,"Ġpoint":4530,"Ġsplashing":4531,"Ġbarks":4532,"Ġstraight":4533,"Ġregret":4534,"Ġcandles":4535,"Ġhanging":4536,"Ġrefre":4537,"ĠUn":4538,"Ġsneak":4539,"Ġmemories":4540,"iskers":4541,"Ġmagazine":4542,"ib":4543,"phone":4544,"sit":4545,"inking":4546,"Ġfought":4547,"Ġlaser":4548,"Ġemer":4549,"Ġrot":4550,"Ġrake":4551,"Ġsock":4552,"chair":4553,"Ġlip":4554,"Ġrequ":4555,"Ġcaring":4556,"rod":4557,"Ġveter":4558,"Ġintrod":4559,"Ġtrade":4560,"Ġtear":4561,"Ġsmells":4562,"Ġunderstanding":4563,"Ġsquirrels":4564,"Ġbreaks":4565,"fortunately":4566,"Ġmailbox":4567,"Ġmistakes":4568,"Inside":4569,"Ġtelephone":4570,"ait":4571,"tain":4572,"inarian":4573,"ites":4574,"Ġnation":4575,"Ġsaving":4576,"ĠHenry":4577,"Ġyucky":4578,"Ġkay":4579,"Ġnote":4580,"Ġflies":4581,"Ġswung":4582,"Ġvet":4583,"Ġoffer":4584,"ĠCat":4585,"Ġfireplace":4586,"Ġarmchair":4587,"bbles":4588,"Ġquietly":4589,"Ġeasily":4590,"Ġeagerly":4591,"Ġsupposed":4592,"Ġglowing":4593,"Ġseparate":4594,"Ġcobweb":4595,"Ġveterinarian":4596,"Mr":4597,"Next":4598,"act":4599,"Ġmen":4600,"ĠTr":4601,"Ġjazz":4602,"Ġnovel":4603,"asp":4604,"ĠLee":4605,"Ġpearl":4606,"Ġhardly":4607,"Ġhotel":4608,"Ġjudge":4609,"Ġblankets":4610,"Ġpuzzles":4611,"Ġshrimp":4612,"Ġdrops":4613,"achel":4614,"arnt":4615,"ĠitÃ¢":4616,"Ġsoil":4617,"Ġplayer":4618,"Ġweep":4619,"Ġcane":4620,"Ġlearnt":4621,"Ġfeelings":4622,"Ġpoked":4623,"aud":4624,"Ġpoints":4625,"Ġinvite":4626,"Ġcollected":4627,"Ġbalan":4628,"Ġchewed":4629,"affe":4630,"Ġostrich":4631,"Bye":4632,"Mmm":4633,"nger":4634,"Ġsigh":4635,"Ġwiz":4636,"Ġbri":4637,"Ġitem":4638,"Ġflav":4639,"ĠFo":4640,"Ġrabbits":4641,"Ġdressed":4642,"Ġwarmth":4643,"Ġcreated":4644,"Ġbelieved":4645,"Ġcoats":4646,"Ġpatiently":4647,"Ġdecorations":4648,"Ġshrink":4649,"Ġgiraffe":4650,"Ġaeroplane":4651,"Ġapplaud":4652,"Ġfestival":4653,"Because":4654,"Ġmop":4655,"Ġshakes":4656,"Ġjug":4657,"Ġmoves":4658,"Ġjogged":4659,"Ġimmediately":4660,"Ġgrill":4661,"ĠRo":4662,"ĠNext":4663,"Ġfloated":4664,"Ġparts":4665,"Ġstreng":4666,"Ġremove":4667,"Ġinstr":4668,"Ġrespons":4669,"Ġdiscovery":4670,"Ġjewelry":4671,"Ġacorns":4672,"Ġcurled":4673,"Ġolives":4674,"Ġwizard":4675,"Jake":4676,"cakes":4677,"ney":4678,"Ġtheater":4679,"Ġhomes":4680,"Ġmall":4681,"Ġga":4682,"Ġgro":4683,"ety":4684,"elery":4685,"Ġfauc":4686,"Ġpear":4687,"ÅĵNo":4688,"Ġideas":4689,"Ġsque":4690,"Ġmoments":4691,"Ġbookshe":4692,"Ġgrowled":4693,"ĠGrace":4694,"Ġchoice":4695,"Ġshrugged":4696,"Ġtrusted":4697,"Ġcardboard":4698,"Ġtornado":4699,"Ġfaucet":4700,"Ok":4701,"ccer":4702,"low":4703,"Ġhive":4704,"Ġwags":4705,"Ġcelery":4706,"Ġbeans":4707,"Ġrow":4708,"ĠJerry":4709,"Ġknot":4710,"Ġmakeup":4711,"Ġquit":4712,"Ġfallen":4713,"Ġdeeper":4714,"Ġsolved":4715,"Together":4716,"Ġcaptain":4717,"ĠClara":4718,"Ġribbon":4719,"Ġchirping":4720,"Ġsuffer":4721,"Ġstrength":4722,"ges":4723,"ĊĠ":4724,"Ġble":4725,"Ġmitten":4726,"Ġpra":4727,"ising":4728,"Ġstable":4729,"Ġsoccer":4730,"sters":4731,"hter":4732,"icing":4733,"Ġlotion":4734,"Ġburied":4735,"Ġlaughter":4736,"Ġfog":4737,"Ġbravely":4738,"Ġletting":4739,"Ġreplace":4740,"ĠRa":4741,"Ġapart":4742,"Ġfolded":4743,"Ġvanished":4744,"Ġringing":4745,"Ġflutter":4746,"Ġwandered":4747,"ĠPeople":4748,"Ġeraser":4749,"Ġbookshelf":4750,"Mandy":4751,"Will":4752,"ab":4753,"case":4754,"nies":4755,"Ġsip":4756,"Ġcable":4757,"Ġpur":4758,"Ġrhy":4759,"ĠIs":4760,"Ġonion":4761,"allen":4762,"Ġchallen":4763,"Ġoper":4764,"izes":4765,"Ġbrain":4766,"ĠRosie":4767,"Sammy":4768,"avid":4769,"Ġignored":4770,"Ġchickens":4771,"Ġpillows":4772,"Ġwisdom":4773,"Ġburned":4774,"Ġsneezed":4775,"Ġsucceeded":4776,"Ġaccepted":4777,"Ġstruggling":4778,"Lisa":4779,"sity":4780,"Ġlumber":4781,"Ġpage":4782,"ishing":4783,"raged":4784,"Ġseas":4785,"Ġprop":4786,"Ġjogging":4787,"Ġhurting":4788,"Ġdifferen":4789,"Ġfollowing":4790,"Ġcastles":4791,"Ġsparkle":4792,"Ġguy":4793,"Ġmatches":4794,"Ġneighborhood":4795,"Ġadmir":4796,"ĠSteve":4797,"Ġfishing":4798,"Ġsandcastle":4799,"Ġvehicle":4800,"..":4801,"Wait":4802,"vet":4803,"Ġpaused":4804,"Ġplates":4805,"Ġscore":4806,"ĠLilly":4807,"Ġskirt":4808,"Ġquack":4809,"Ġtease":4810,"Ġdrain":4811,"Ġamazem":4812,"Ġchairs":4813,"Ġhearts":4814,"ĠOllie":4815,"Ġpresents":4816,"Ġserve":4817,"Ġcrossed":4818,"Ġtuna":4819,"Ġcrawling":4820,"Ġamazement":4821,"Ġwipe":4822,"Ġfash":4823,"Ġlime":4824,"Ġport":4825,"Ġsport":4826,"Ġcliff":4827,"aped":4828,"Ġslice":4829,"Ġrail":4830,"Ġbookcase":4831,"Ġbelow":4832,"Ġsub":4833,"Ġcollection":4834,"Ġsneeze":4835,"Ġrepeat":4836,"Ġsettled":4837,"Ġprovide":4838,"ĠSuzy":4839,"Ġviolin":4840,"Mark":4841,"riger":4842,"utty":4843,"Ġplastic":4844,"seek":4845,"Ġscooped":4846,"ĠLater":4847,"Ġswamp":4848,"Ġraise":4849,"ction":4850,"Ġappro":4851,"ĠRuby":4852,"Ġsetting":4853,"ĠKate":4854,"Ġhits":4855,"Ġshopkeeper":4856,"Ġincre":4857,"Ġsafety":4858,"Ġsupply":4859,"Ġworms":4860,"Ġignore":4861,"Ġrefriger":4862,"Ġsqueezed":4863,"ĠSpike":4864,"Ġmuffin":4865,"ĠWhiskers":4866,"Ġkayak":4867,"Ġfashion":4868,"Ġrefrigerator":4869,"Did":4870,"Ġachie":4871,"Ġfut":4872,"Ġduring":4873,"Ġpalm":4874,"Ġoil":4875,"Ġherbs":4876,"Ġbegged":4877,"elcome":4878,"Ġhappens":4879,"ĠAb":4880,"Ġknown":4881,"Ġhelper":4882,"Ġalright":4883,"asc":4884,"Ġflap":4885,"Ġskills":4886,"Ġopera":4887,"Ġimage":4888,"Ġkeeping":4889,"thm":4890,"ĠKat":4891,"Ġstrawberries":4892,"Ġcuddled":4893,"Ġcrib":4894,"Ġprepare":4895,"Ġscattered":4896,"Ġuniversity":4897,"Ġsniffed":4898,"ÅĵItÃ¢":4899,"Ġdisagreed":4900,"Ġcomplete":4901,"Ġinclud":4902,"Ġinsisted":4903,"Ġdiscuss":4904,"Ġavocado":4905,"Ġgrocer":4906,"Ġfuture":4907,"'.":4908,"nam":4909,"Ġhesit":4910,"ense":4911,"eside":4912,"Ġplays":4913,"Ġwhip":4914,"Ġweren":4915,"Ġroot":4916,"âĤ¬.":4917,"Ġvac":4918,"Ġpeaches":4919,"Ġrooms":4920,"xture":4921,"Ġdoors":4922,"ĠPaul":4923,"Ġrush":4924,"Ġheads":4925,"Ġfollows":4926,"ission":4927,"Ġzig":4928,"anges":4929,"Ġwarning":4930,"Ġsafari":4931,"ĠRemy":4932,"Ġharb":4933,"ĠZoe":4934,"Ġyoga":4935,"Ġrelaxed":4936,"Ġbumped":4937,"Ġpermission":4938,"Ġbreathe":4939,"Ġbuzzing":4940,"Ġmineral":4941,"Ġemergen":4942,"Ġrhythm":4943,"Ġoperation":4944,"'ve":4945,"Bella":4946,"Peter":4947,"mend":4948,"shing":4949,"Ġaut":4950,"Ġbun":4951,"Ġfle":4952,"Ġdaisy":4953,"Ġdigg":4954,"Ġmention":4955,"ommend":4956,"ishes":4957,"Ġherb":4958,"Ġstro":4959,"Ġsoared":4960,"Ġspade":4961,"inky":4962,"Ġhated":4963,"Ġrecommend":4964,"laire":4965,"Ġteaching":4966,"Ġbathe":4967,"Ġsqueeze":4968,"ĠFreddy":4969,"Ġpunish":4970,"Ġdestroyed":4971,"ah":4972,"ived":4973,"lid":4974,"Ġbeside":4975,"Ġmass":4976,"Ġevent":4977,"Ġboot":4978,"Ġseag":4979,"Ġmeowed":4980,"Ġornam":4981,"Ġjokes":4982,"ffic":4983,"member":4984,"Ġcontinue":4985,"osity":4986,"Ġenter":4987,"Ġmystery":4988,"Ġfolder":4989,"Ġspending":4990,"ĠBefore":4991,"Ġmelted":4992,"Ġappreciate":4993,"Ġreverse":4994,"Ġpraised":4995,"Ġdigging":4996,"Ġseagull":4997,"walk":4998,"Ġsizes":4999,"Ġdire":5000,"ĠIts":5001,"Ġleak":5002,"Ġholid":5003,"Ġcalls":5004,"Ġglove":5005,"Ġwherever":5006,"ĠNot":5007,"Ġsidewalk":5008,"ĠBuzz":5009,"Ġimprove":5010,"Ġsurrounded":5011,"ĠRabbit":5012,"Ġsubway":5013,"Ġvacation":5014,"Ġholiday":5015,"Ann":5016,"ls":5017,"lier":5018,"render":5019,"Ġfed":5020,"arm":5021,"imney":5022,"ĠHelp":5023,"Ġsocks":5024,"Ġhist":5025,"Ġlicks":5026,"ĠJones":5027,"Ġchimney":5028,"bbled":5029,"Ġpoem":5030,"Ġslip":5031,"Ġfamil":5032,"Ġunite":5033,"Ġtaller":5034,"Ġsparkles":5035,"Ġbeneath":5036,"Ġdoctors":5037,"Ġbringing":5038,"Ġpastry":5039,"Ġcollecting":5040,"Ġpanic":5041,"Ġjewels":5042,"Ġweeks":5043,"Ġcherries":5044,"Is":5045,"Tweet":5046,"ccol":5047,"ym":5048,"Ġbill":5049,"Ġgym":5050,"oral":5051,"amie":5052,"Ġrust":5053,"Ġisn":5054,"!\",":5055,"Ġjail":5056,"Ġalarm":5057,"Ġblood":5058,"Ġruler":5059,"ĠRachel":5060,"Ġpulling":5061,"Ġplanned":5062,"angu":5063,"Ġdisappear":5064,"Ġelephants":5065,"Ġapron":5066,"Ġexamine":5067,"Ġscratched":5068,"Ġdifference":5069,"ascin":5070,"Ġhistory":5071,"ccoli":5072,"Jen":5073,"Kitty":5074,"cage":5075,"fied":5076,"tress":5077,"Ġsir":5078,"Ġsimp":5079,"Ġhate":5080,"reat":5081,"Ġfascin":5082,"Ġlangu":5083,"Ġbirdcage":5084,"ĠLou":5085,"ĠLuna":5086,"Ġdoggy":5087,"Ġtraffic":5088,"Ġbroccoli":5089,"Ġsticker":5090,"Ġbites":5091,"Ġrested":5092,"Ġrestore":5093,"Ġpainter":5094,"Ġfixing":5095,"Ġattach":5096,"Ġmattress":5097,"Ġwhistling":5098,"ictory":5099,"Ġsettle":5100,"Ġyawned":5101,"aspoon":5102,"With":5103,"fy":5104,"hins":5105,"ring":5106,"te":5107,"ena":5108,"Ġhappiest":5109,"Ġsew":5110,"Ġtremb":5111,"ĠLiz":5112,"Ġmyself":5113,"Ġwatered":5114,"Ġteaspoon":5115,"ĠNutty":5116,"Ġplanes":5117,"Ġaccom":5118,"Ġgifts":5119,"ĠOr":5120,"Ġactually":5121,"Ġeagle":5122,"Ġsurrender":5123,"Ġfilm":5124,"Ġtwisted":5125,"Ġdestination":5126,"Ġscratch":5127,"Ġfireworks":5128,"Ġblueberries":5129,"Ġstomach":5130,"ĠTrue":5131,"Ġharbor":5132,"Ġemergency":5133,"zag":5134,"ĠQu":5135,"Ġlily":5136,"Ġheat":5137,"ĠSunny":5138,"ira":5139,"Ġpoison":5140,"Ġgrey":5141,"Ġcomfy":5142,"ĠThomas":5143,"Ġfloat":5144,"Ġhills":5145,"uggage":5146,"Ġveil":5147,"Ġdrinks":5148,"Ġmission":5149,"Ġthrows":5150,"Ġearlier":5151,"Ġtracks":5152,"Ġawe":5153,"Emily":5154,"ĠSnow":5155,"Ġbunnies":5156,"Not":5157,"ium":5158,"Ġtide":5159,"Ġtug":5160,"Ġtoe":5161,"Ġtong":5162,"Ġwaste":5163,"Ġrelease":5164,"Ġgirls":5165,"ĠJazz":5166,"ĠEach":5167,"Ġgotten":5168,"Ġshower":5169,"Ġsecrets":5170,"ĠSharing":5171,"Ġbleed":5172,"Ġaccompl":5173,"All":5174,"mare":5175,"hest":5176,"Ġdare":5177,"att":5178,"ĠSandy":5179,"icorn":5180,"Ġscur":5181,"Ġbrings":5182,"Ġeveryday":5183,"ĠFro":5184,"Ġpossible":5185,"Ġfastest":5186,"Ġunicorn":5187,"Ġdresses":5188,"Ġnightmare":5189,"Ġpetted":5190,"Ġstretching":5191,"Ġreminder":5192,"Ġdolphins":5193,"Ġhurric":5194,"Ġwhisper":5195,"ĠBubbles":5196,"Ġloaded":5197,"Ġencouraged":5198,"Ġchallenge":5199,"Ġapproached":5200,"Ġautom":5201,"Ġflea":5202,"Ġbillboard":5203,"Fl":5204,"was":5205,"Ġtore":5206,"Ġtour":5207,"Ġgust":5208,"anna":5209,"amb":5210,"Ġbend":5211,"adium":5212,"Ġlick":5213,"Ġexact":5214,"Ġmeow":5215,"ddy":5216,"Ġworse":5217,"quake":5218,"Ġpoppy":5219,"Ġskipping":5220,"Ġexplorer":5221,"ĠPenny":5222,"Ġsparkling":5223,"Ġvel":5224,"Ġeasier":5225,"ĠAnnie":5226,"Ġdishwas":5227,"Ġuniverse":5228,"Ġearthquake":5229,"Ġobserve":5230,"Ġmeasured":5231,"Ġbrick":5232,"Ġautomob":5233,"Ġdishwasher":5234,"\",":5235,"Ġthumb":5236,"etch":5237,"Ġstadium":5238,"Ġreaches":5239,"terday":5240,"Ġpeered":5241,"ĠEveryday":5242,"ÅĵWe":5243,"Ġappear":5244,"Ġours":5245,"Ġlands":5246,"Ġward":5247,"Ġwaffles":5248,"omeday":5249,"Ġreceive":5250,"Ġreceived":5251,"Ġfuel":5252,"Ġpowder":5253,"Ġsausage":5254,"Ġrefreshed":5255,"Ġzigzag":5256,"Sh":5257,"Welcome":5258,"Ġsomeday":5259,"Ġdried":5260,"ĠTina":5261,"Ġhers":5262,"igail":5263,"ickey":5264,"Ġmanage":5265,"Ġlaid":5266,"Ġlawn":5267,"ĠDavid":5268,"Ġstrang":5269,"izing":5270,"Ġteasing":5271,"ĠJosh":5272,"Ġcub":5273,"Ġcrept":5274,"Ġspoons":5275,"Ġinvit":5276,"Ġvillag":5277,"Ġmailman":5278,"Ġmountains":5279,"Ġhuman":5280,"Ġprayed":5281,"Ġstrike":5282,"Ġchirped":5283,"Ġexercise":5284,"Ġgrinned":5285,"Ġtongue":5286,"Ġwardrobe":5287,"mother":5288,"ĠJames":5289,"Ġpoking":5290,"ĠCo":5291,"Ġworkers":5292,"Ġwonders":5293,"Ġcrunch":5294,"Ġresting":5295,"Ġladyb":5296,"Ġdiary":5297,"ĠHowever":5298,"Ġhurried":5299,"Ġescaped":5300,"Ġlemonade":5301,"Ġphotos":5302,"Ġcherry":5303,"Ġpedal":5304,"xygen":5305,"Ġresponsible":5306,"Ġvelvet":5307,"First":5308,"Sometimes":5309,"py":5310,"Ġfile":5311,"allow":5312,"Ġrele":5313,"Ġspit":5314,"ĠWho":5315,"Ġpride":5316,"Ġvictory":5317,"Ġglo":5318,"Ġglowed":5319,"Ġthrilled":5320,"Ġowned":5321,"Ġcontain":5322,"Ġduckling":5323,"Ġspots":5324,"Ġsatis":5325,"Ġplanted":5326,"Ġbuckle":5327,"Ġmarks":5328,"Ġsliding":5329,"Ġcircus":5330,"Ġdiscovering":5331,"Ġrequest":5332,"Ġadmiring":5333,"Ġornament":5334,"Ġstrangers":5335,"Luckily":5336,"nes":5337,"ĠV":5338,"ednes":5339,"ĠHave":5340,"irpy":5341,"Ġweight":5342,"Ġweap":5343,"Ġshot":5344,"Ġjunk":5345,"Ġopin":5346,"Ġturning":5347,"Ġvoices":5348,"Ġhopes":5349,"Ġfloating":5350,"Ġshopping":5351,"Ġmissile":5352,"orses":5353,"ÅĵIÃ¢":5354,"Before":5355,"Ġpatterns":5356,"Ġcabinet":5357,"Ġrecognized":5358,"Ġmassage":5359,"ednesday":5360,"!'":5361,"iers":5362,"Ġhorses":5363,"Ġluggage":5364,"Ġwashing":5365,"oming":5366,"Ġoats":5367,"Ġoxygen":5368,"Ġgain":5369,"Ġgear":5370,"Ġweighed":5371,"ores":5372,"Ġquiz":5373,"Ġoranges":5374,"Ġclearing":5375,"Ġstole":5376,"Ġworks":5377,"Ġcontro":5378,"Ġmarching":5379,"ĠJenna":5380,"Ġsoldiers":5381,"Ġpeanuts":5382,"George":5383,"ien":5384,"len":5385,"rr":5386,"ĠSad":5387,"ĠSee":5388,"ases":5389,"ĠWednesday":5390,"Ġchores":5391,"Ġoverjoy":5392,"Ġsnapped":5393,"Ġlets":5394,"Ġclimbs":5395,"aces":5396,"ĠNina":5397,"Ġcatching":5398,"Ġcompany":5399,"Ġproblems":5400,"Ġlawy":5401,"Ġurge":5402,"Ġlips":5403,"Ġlanguage":5404,"Ġexactly":5405,"Ġgloves":5406,"Ġoverjoyed":5407,"Ella":5408,"Lola":5409,"Susie":5410,"Un":5411,"ging":5412,"oved":5413,"rise":5414,"uing":5415,"ude":5416,"Ġsi":5417,"Ġbang":5418,"Ġcakes":5419,"Ġlect":5420,"Ġdent":5421,"atch":5422,"Ġnone":5423,"Ġbeamed":5424,"Ġsoaring":5425,"Ġwanting":5426,"ĠJe":5427,"Ġanytime":5428,"Ġsunrise":5429,"Ġracing":5430,"Ġcones":5431,"ĠGood":5432,"Ġperfu":5433,"Ġtastes":5434,"Ġprec":5435,"Ġpancakes":5436,"Ġradishes":5437,"Ġshelves":5438,"Ġpadd":5439,"Ġlecture":5440,"Al":5441,"Dave":5442,"mble":5443,"pe":5444,"ux":5445,"ury":5446,"va":5447,"yle":5448,"Ġcaut":5449,"Ġlux":5450,"Ġonwards":5451,"Ġsoak":5452,"Ġupstairs":5453,"Ġwhatever":5454,"Ġflat":5455,"Ġvroom":5456,"Ġstruc":5457,"ÅĵThank":5458,"Ġzipped":5459,"Ġdrift":5460,"Ġbowed":5461,"Ġsits":5462,"Ġpaints":5463,"ĠOl":5464,"Ġzooming":5465,"Ġserved":5466,"ĠSomeone":5467,"Ġsights":5468,"Ġprepared":5469,"Ġolive":5470,"uesday":5471,"Ġsprinkles":5472,"Ġhurricane":5473,"Ġinvitation":5474,"Ġladybug":5475,"Ġlawyer":5476,"Ġstructure":5477,"Yuck":5478,"do":5479,"Ġcal":5480,"ĠTuesday":5481,"Ġrag":5482,"ĠMaggie":5483,"Ġarea":5484,"ĠJamie":5485,"Ġmuddy":5486,"Ġsorting":5487,"Ġprett":5488,"ÅĵCan":5489,"ÅĵDon":5490,"Ġunderground":5491,"Ġsurprises":5492,"Ġsteel":5493,"Ġfiremen":5494,"Ġcrashed":5495,"ĠDoggy":5496,"Ġhighest":5497,"Ġscreams":5498,"Andy":5499,"Ġcomforted":5500,"Ġlabel":5501,"Ġfascinated":5502,"Ġvillagers":5503,"Ġperfume":5504,"Ġprecious":5505,"Mike":5506,"ik":5507,"rin":5508,"Ġbare":5509,"Ġcape":5510,"Ġpies":5511,"Ġoat":5512,"vers":5513,"Ġeff":5514,"Ġbean":5515,"omething":5516,"Ġslim":5517,"Ġglitter":5518,"ĠRob":5519,"ampoo":5520,"Ġfreeze":5521,"Ġdecorated":5522,"Ġmovies":5523,"Ġstealing":5524,"Ġpupil":5525,"Ġkneeled":5526,"Ġrevealed":5527,"Ġsimple":5528,"Ġreleased":5529,"ex":5530,"jam":5531,"Ġx":5532,"Ġwagging":5533,"Ġbeat":5534,"Ġstaring":5535,"Ġsoaked":5536,"aded":5537,"These":5538,"Ġshampoo":5539,"Ġscoop":5540,"bbie":5541,"Ġkindly":5542,"Ġbye":5543,"ĠClaire":5544,"Ġwondering":5545,"Ġzero":5546,"Ġremained":5547,"Ġsolut":5548,"Ġtune":5549,"Ġstamps":5550,"Ġstudying":5551,"Ġtwigs":5552,"Ġgrandmother":5553,"Ġitems":5554,"Ġproperly":5555,"Ġmentioned":5556,"Ġeffort":5557,"Ġslimy":5558,"Ouch":5559,"Yum":5560,"Ġ1":5561,"Ġtim":5562,"Ġsings":5563,"Ġdam":5564,"Ġdied":5565,"Ġmister":5566,"Ġobe":5567,"Ġnicer":5568,"Ġinch":5569,"Ġequ":5570,"Ġbeg":5571,"Ġexit":5572,"Ġallow":5573,"Ġtremble":5574,"Ġsadness":5575,"Ġstolen":5576,"Ġrained":5577,"Ġtalent":5578,"Ġcuriosity":5579,"Ġwooden":5580,"Ġpolishing":5581,"uggles":5582,"Ġmouths":5583,"Ġwinning":5584,"Ġblackboard":5585,"Ġmarkers":5586,"Ġrelief":5587,"Ġsafer":5588,"ĠChirpy":5589,"Ġcheering":5590,"Ġseats":5591,"Ġrides":5592,"Ġordered":5593,"Ġcuddle":5594,"Ġmemory":5595,"uctantly":5596,"Ġtraveled":5597,"ĠJessie":5598,"Ġdemanded":5599,"Ġregretted":5600,"Ġweapon":5601,"Ġsiren":5602,"Ġluxury":5603,"Dan":5604,"ales":5605,"eed":5606,"fit":5607,"neath":5608,"Ġtonight":5609,"Ġfetch":5610,"Ġhanger":5611,"Ġdecision":5612,"Ġchess":5613,"Ġbrand":5614,"Ġshoulders":5615,"Ġfiref":5616,"Ġbuildings":5617,"Ġaccidents":5618,"Ġremain":5619,"Ġacting":5620,"Ġpracticing":5621,"Ġselling":5622,"unday":5623,"Ġunlocked":5624,"Ġrepeated":5625,"Ġnails":5626,"Ġbrushes":5627,"Ġmeasuring":5628,"Ġtravell":5629,"Ġstudied":5630,"Ġcrunchy":5631,"Ġopinion":5632,"Ġcontrol":5633,"Ġcautious":5634,"Ġobey":5635,"Le":5636,"bric":5637,"wo":5638,"Ġtherm":5639,"Ġboo":5640,"Ġbank":5641,"ĠSunday":5642,"Ġoutfit":5643,"ĠAm":5644,"Ġknelt":5645,"ometer":5646,"Ġfabric":5647,"Ġrang":5648,"Ġflapping":5649,"Ġraised":5650,"Ġunderneath":5651,"Ġfrosting":5652,"ĠLetÃ¢":5653,"Ġdarkness":5654,"Ġpacking":5655,"Ġwarn":5656,"Ġpencils":5657,"Ġconfident":5658,"ĠQuack":5659,"jamas":5660,"Ġsolution":5661,"Ġthermometer":5662,"Ex":5663,"ais":5664,"ivery":5665,"son":5666,"Ġtip":5667,"Ġwoof":5668,"Ġlines":5669,"Ġpause":5670,"ĠSure":5671,"ĠSus":5672,"ĠSomething":5673,"ĠHa":5674,"irts":5675,"Ġres":5676,"ĠMickey":5677,"Ġloving":5678,"umble":5679,"ĠLucky":5680,"Ġstruck":5681,"Ġstruggled":5682,"aster":5683,"Ġdragged":5684,"Johnny":5685,"boat":5686,"Ready":5687,"Ġneighbourhood":5688,"Ġbalanced":5689,"ĠSnowy":5690,"Ġbleeding":5691,"Ġscurried":5692,"Ġautomobile":5693,"Would":5694,"Ġonions":5695,"indy":5696,"ĠJan":5697,"umbs":5698,"Ġago":5699,"Ġranger":5700,"Ġbudge":5701,"Ġtexture":5702,"ledge":5703,"Ġattached":5704,"Ġmixing":5705,"Ġpastel":5706,"Ġentire":5707,"ĠAnne":5708,"Ġpunished":5709,"Ġbrushed":5710,"Fluffy":5711,"Ġdentist":5712,"Ġbarely":5713,"Fr":5714,"Moral":5715,"Nina":5716,"cc":5717,"Ġbunch":5718,"Ġgained":5719,"ĠHoppy":5720,"Ġyum":5721,"Ġprune":5722,"Ġknowledge":5723,"Ġeats":5724,"Ġsunlight":5725,"Ġofficer":5726,"ĠCarl":5727,"Ġstaying":5728,"Ġrealize":5729,"Ġtrapped":5730,"Ġbreaking":5731,"Ġdrinking":5732,"Ġperched":5733,"Ġtouching":5734,"Ġcomple":5735,"Ġvisiting":5736,"Ġlandsc":5737,"Ġwhistled":5738,"Ġreluctantly":5739,"Ġcelebration":5740,"ĠStop":5741,"ivity":5742,"Ġrubbing":5743,"Ġguessed":5744,"Ġshooting":5745,"looking":5746,"Ġencourage":5747,"Ġcamping":5748,"ĠChrist":5749,"Ġintroduce":5750,"Ġmenu":5751,"Ġinstruct":5752,"Ġgazed":5753,"Ġfamilies":5754,"Sophie":5755,"ding":5756,"kins":5757,"ities":5758,"Ġnavy":5759,"Ġripped":5760,"riage":5761,"Ġfeast":5762,"Ġcopper":5763,"Ġchases":5764,"Ġvowed":5765,"ĠFirst":5766,"Ġpeel":5767,"ĠJoy":5768,"ÅĵOh":5769,"Ġkeeps":5770,"Ġdelivery":5771,"ĠPoppy":5772,"Ġbroom":5773,"Ġourselves":5774,"Ġsweeties":5775,"Ġprinter":5776,"Ġbaked":5777,"Ġcrabs":5778,"Ġnaps":5779,"Ġorganizing":5780,"Ġpinched":5781,"Ġclaps":5782,"Ġapologize":5783,"Really":5784,"Ġagreement":5785,"Ġdisagree":5786,"Ġcartoons":5787,"Ġcrowd":5788,"Ġtwinkling":5789,"ĠChris":5790,"Ġsighs":5791,"Ġflavor":5792,"Ġtrembling":5793,"exp":5794,"Ġlandscape":5795,"Ġinstructions":5796,".'":5797,"Ah":5798,"Teddy":5799,"itely":5800,"Ġcash":5801,"anes":5802,"irm":5803,"Ġsting":5804,"Ġyouth":5805,"sted":5806,"ĠBeth":5807,"ĠMilly":5808,"ĠMatt":5809,"Ġboom":5810,"ĠJune":5811,"Ġroaring":5812,"Ġworries":5813,"ĠLu":5814,"Ġswooped":5815,"ĠFor":5816,"ÅĵThis":5817,"Ġruin":5818,"Ġwinner":5819,"Ġexpect":5820,"Ġgiggling":5821,"Ġfigured":5822,"Ġmelting":5823,"Ġsurface":5824,"Ġcompetition":5825,"Ġshivering":5826,"ĠFrank":5827,"ĠUncle":5828,"Ġpurred":5829,"Ġachieve":5830,"Ġsatisfied":5831,"ÅĵDonÃ¢":5832,"ĠHappy":5833,"expected":5834,"boo":5835,"loe":5836,"you":5837,"Ġsway":5838,"eds":5839,"Ġbumpy":5840,"Ġheav":5841,"Ġgle":5842,"Ġeight":5843,"Ġstool":5844,"Ġlic":5845,"ĠMira":5846,"Ġspill":5847,"Ġbecoming":5848,"Ġdownstairs":5849,"Ġgreet":5850,"Ġgrant":5851,"Ġsitu":5852,"Ġscreaming":5853,"Ġparked":5854,"Ġmotion":5855,"Ġpouring":5856,"izzie":5857,"Ġrecorded":5858,"Ġshivered":5859,"Ġpermit":5860,"ĠSnuggles":5861,"ÅĵThatÃ¢":5862,"Ġguys":5863,"Ġincluding":5864,"Ġtimer":5865,"bies":5866,"mas":5867,"zie":5868,"ĠY":5869,"reck":5870,"ĠSqu":5871,"Ġstyle":5872,"ĠBoth":5873,"icky":5874,"Ġbrid":5875,"Ġdecides":5876,"ĠLena":5877,"Ġvent":5878,"usted":5879,"ĠMomo":5880,"Ġchef":5881,"ÅĵHello":5882,"Ġrocking":5883,"Ġunexpected":5884,"Joey":5885,"Ġforgi":5886,"Ġbabies":5887,"Ġcutting":5888,"Ġyesterday":5889,"Ġgrowling":5890,"Ġsecure":5891,"Ġpajamas":5892,"Ġbouncy":5893,"Ġsupplies":5894,"Ġstirring":5895,"Ġtwirling":5896,"Ġhorns":5897,"Ġblooming":5898,"Ġsweat":5899,"Ġcostumes":5900,"Ġstripes":5901,"Ġwiggled":5902,"Happy":5903,"Ġintroduc":5904,"Ġincrease":5905,"ĠAbigail":5906,"Ġlicense":5907,"Alex":5908,"Kat":5909,"zing":5910,"hello":5911,"Ġty":5912,"Ġsix":5913,"Ġwest":5914,"Ġfirm":5915,"iles":5916,"igers":5917,"Ġstair":5918,"Ġsore":5919,"enty":5920,"Ġann":5921,"Ġoutdo":5922,"Ġscra":5923,"Ġroots":5924,"Ġflas":5925,"anta":5926,"Ġtreehouse":5927,"ipment":5928,"Ġconn":5929,"Ġwaits":5930,"Ġremembers":5931,"Ġstorekeeper":5932,"Ġsailboat":5933,"Ġpatience":5934,"iggy":5935,"angled":5936,"Ġbuckets":5937,"Ġspraying":5938,"Ġvanish":5939,"Ġdrums":5940,"Ġdinosaurs":5941,"Ġoysters":5942,"Ġprice":5943,"Ġpeeking":5944,"Ġrescued":5945,"ĠJulie":5946,"Ġequipment":5947,"ĠChristmas":5948,"Ġbridges":5949,"Pete":5950,"Sad":5951,"cers":5952,"njoy":5953,"pite":5954,"Ġtugged":5955,"Ġsides":5956,"edding":5957,"Ġbones":5958,"Ġfreed":5959,"Ġcott":5960,"Ġoas":5961,"arrow":5962,"ĠThese":5963,"Ġthorn":5964,"Ġshed":5965,"Ġshock":5966,"ĠItÃ¢":5967,"ason":5968,"Ġchat":5969,"Ġblouse":5970,"aker":5971,"Ġforehead":5972,"acob":5973,"ĠPut":5974,"Afterwards":5975,"Ġsingle":5976,"Ġbeha":5977,"Ġbuying":5978,"Ġarrive":5979,"Ġsparks":5980,"Ġpets":5981,"Ġpockets":5982,"Ġmixer":5983,"Ġnetwork":5984,"Ġargued":5985,"Ġbloomed":5986,"Remember":5987,"âĤ¬âĢĿ":5988,"Ġsneaked":5989,"Ġribbons":5990,"Charlie":5991,"Ġobserved":5992,"Ġdisturbed":5993,"Ġrecognize":5994,"Ġgrocery":5995,"Ġbegin":5996,"Ġcautiously":5997,"ĠAmel":5998,"Ġsituation":5999,"Ġoutdoors":6000,"Ġoasis":6001,"Cl":6002,"Harry":6003,"Sp":6004,"ody":6005,"Ġwid":6006,"Ġcous":6007,"Ġpout":6008,"Ġpitch":6009,"ays":6010,"iding":6011,"elix":6012,"Ġspaces":6013,"Ġexha":6014,"ument":6015,"Ġchip":6016,"Ġslap":6017,"ĠPrin":6018,"Ġworker":6019,"Ġtowels":6020,"Ġstem":6021,"Ġsteep":6022,"Ġfroze":6023,"Ġswims":6024,"Ġpaintings":6025,"Ġprincesses":6026,"Ġteaches":6027,"Ġwinked":6028,"Ġkeys":6029,"Ġmatched":6030,"Ġmachines":6031,"Ġcoloured":6032,"Ġclowns":6033,"Ġburning":6034,"Ġcrackers":6035,"Ġbasement":6036,"Ġpedals":6037,"Ġobjects":6038,"Ġshadows":6039,"Ġmuffins":6040,"Ġreveal":6041,"Ġcashier":6042,"Henry":6043,"Mar":6044,"Mittens":6045,"die":6046,"iar":6047,"ndar":6048,"Ġwaist":6049,"Ġcust":6050,"Ġcale":6051,"ĠHoot":6052,"Ġeast":6053,"ĠBo":6054,"Ġshined":6055,"ĠMe":6056,"ĠAn":6057,"ĠAbby":6058,"artha":6059,"ĠcanÃ¢":6060,"icked":6061,"ĠLike":6062,"ĠDolly":6063,"ĠRobby":6064,"Ġusually":6065,"Ġmonth":6066,"Ġmarked":6067,"Ġpolished":6068,"Ġbathrobe":6069,"Ġpigs":6070,"Ġpastels":6071,"Ġpassing":6072,"Ġblows":6073,"Ġpleasure":6074,"Ġrecording":6075,"Ġlibrarian":6076,"Grandpa":6077,"Ġcurtains":6078,"Ġpebbles":6079,"Ġcompletely":6080,"Ġblueberry":6081,"Ġpowers":6082,"Ġaccomplish":6083,"Ġcompleted":6084,"Ġexhausted":6085,"Ġcustom":6086,"Ġcalendar":6087,"May":6088,"ael":6089,"cles":6090,"eep":6091,"jo":6092,"olp":6093,"hew":6094,"Ġbars":6095,"Ġmice":6096,"Ġmater":6097,"ility":6098,"atul":6099,"onnie":6100,"ley":6101,"ĠHop":6102,"cky":6103,"ĠyouÃ¢":6104,"Ġweb":6105,"Ġshirts":6106,"indrop":6107,"Ġleather":6108,"ongo":6109,"Ġlap":6110,"Ġhugging":6111,"Ġblink":6112,"Ġbully":6113,"Ġhowever":6114,"Ġrocked":6115,"Ġkeeper":6116,"thank":6117,"aced":6118,"Ġimportance":6119,"ĠGr":6120,"Ġcreation":6121,"Ġmarriage":6122,"Ġsnowball":6123,"ichael":6124,"Ġremoved":6125,"Ġrainbows":6126,"Ġhoriz":6127,"Ġchewing":6128,"Ġarguing":6129,"udolp":6130,"ĠMikey":6131,"ÅĵWhatÃ¢":6132,"Ġcheeks":6133,"Ġapplauded":6134,"Ġgaze":6135,"Ġquacked":6136,"Ġdirection":6137,"Ġpaddled":6138,"ĠSusan":6139,"Ġglee":6140,"Ġmateri":6141,"udolph":6142,"Or":6143,"Time":6144,"dam":6145,"od":6146,"oed":6147,"vin":6148,"Ġwedding":6149,"ition":6150,"Ġlung":6151,"iled":6152,"iders":6153,"Ġkites":6154,"Ġloose":6155,"ĠJay":6156,"Ġstartled":6157,"ĠEnjoy":6158,"ĠFelix":6159,"Ġslapped":6160,"ishy":6161,"aky":6162,"Ġstrings":6163,"Ġraindrop":6164,"ÅĵLook":6165,"ĠletÃ¢":6166,"Ġbeds":6167,"ĠRudolph":6168,"Ġpatted":6169,"Ġproject":6170,"Ġreaching":6171,"Ġexpected":6172,"Ġdeser":6173,"Ġflags":6174,"Ġfilling":6175,"Ġlollipops":6176,"Ġpiles":6177,"Ġtickets":6178,"Ġtomatoes":6179,"ĠUnfortunately":6180,"Mrs":6181,"Ġsquealed":6182,"annah":6183,"ĠJeff":6184,"Ġhorizon":6185,"?'":6186,"Bu":6187,"Bobby":6188,"Some":6189,"Ye":6190,"melon":6191,"ris":6192,"ĠOnce":6193,"Ġwreck":6194,"Ġheel":6195,"Ġpiggy":6196,"ĠSanta":6197,"Ġripe":6198,"Ġstare":6199,"Ġplenty":6200,"Ġyounger":6201,"ĠMel":6202,"Ġspiders":6203,"Ġfaced":6204,"ĠLizzie":6205,"ĠDid":6206,"isten":6207,"ĠFar":6208,"Ġwatermelon":6209,"Ġdancers":6210,"Ġbedtime":6211,"Ġwrites":6212,"Ġcloses":6213,"Ġusual":6214,"Ġyelling":6215,"Ġsweets":6216,"Ġcuts":6217,"Ġpretends":6218,"Ġfairies":6219,"Ġanswers":6220,"Ġacted":6221,"Ġkicking":6222,"Ġinterested":6223,"Ġtickled":6224,"affes":6225,"Ġgiraffes":6226,"ĠSuzie":6227,"Ġburrow":6228,"Ġurged":6229,"ĠKatie":6230,"Ġgroceries":6231,"Maggie":6232,"aby":6233,"oh":6234,"rance":6235,"yan":6236,"ĠYes":6237,"Ġfart":6238,"Ġcent":6239,"Ġcaused":6240,"Ġlower":6241,"rip":6242,"ĠBird":6243,"ĠĊĠ":6244,"urry":6245,"ĠAunt":6246,"Ġleap":6247,"Ġsomebody":6248,"Ġchips":6249,"Ġeverybody":6250,"Ġwatches":6251,"ÅĵWhy":6252,"Ġunf":6253,"Ġowners":6254,"Ġsinger":6255,"Ġpartic":6256,"Ġcreating":6257,"Ġsigned":6258,"Ġbottles":6259,"Ġneighbors":6260,"Ġinviting":6261,"Ġprotecting":6262,"Ġglasses":6263,"Ġtickle":6264,"Ġsuggest":6265,"Ġleader":6266,"Ġleaning":6267,"Ġinclude":6268,"Ġinsects":6269,"Ġcomplaining":6270,"Ġbalancing":6271,"ĠFollow":6272,"lowly":6273,"Ġfluttering":6274,"ĠKaty":6275,"Ġdirect":6276,"Ġrustling":6277,"Ġdrifted":6278,"ĠLuke":6279,"Ġventured":6280,"Ġspaceship":6281,"Ab":6282,"go":6283,"gers":6284,"ne":6285,"Ġti":6286,"Ġast":6287,"Ġwound":6288,"Ġden":6289,"ĠTwo":6290,"ayla":6291,"Ġbeard":6292,"rious":6293,"Ġplucked":6294,"ĠBongo":6295,"ĠMoo":6296,"Ġseven":6297,"Ġscaring":6298,"ĠWigg":6299,"Ġfault":6300,"Ġgoodnight":6301,"ĠLizzy":6302,"ĠLuckily":6303,"Ġpears":6304,"Ġpupp":6305,"Ġsorted":6306,"Ġcomm":6307,"Ġsnail":6308,"ĠCar":6309,"Those":6310,"Ġwritten":6311,"Ġreplaced":6312,"Ġrainco":6313,"Ġlistens":6314,"Ġyells":6315,"Ġcontest":6316,"Ġmonsters":6317,"Ġprinted":6318,"Ġtallest":6319,"avi":6320,"ĠwasnÃ¢":6321,"ĠKing":6322,"Ġmarker":6323,"Ġactions":6324,"Ġgathering":6325,"Ġprotected":6326,"Ġcandies":6327,"Ġmasks":6328,"Ġawake":6329,"ĠBuzzy":6330,"Ġstruggle":6331,"ĠAli":6332,"ÅĵYouÃ¢":6333,"Ġconfl":6334,"Ġintroduced":6335,"Bad":6336,"aired":6337,"bel":6338,"dies":6339,"eke":6340,"ubb":6341,"Ġtiss":6342,"Ġcough":6343,"Ġdared":6344,"Ġdaring":6345,"Ġmoo":6346,"arter":6347,"atur":6348,"ĠSque":6349,"ormed":6350,"Ġinsp":6351,"Ġrisk":6352,"ades":6353,"Ġreason":6354,"ĠMon":6355,"Ġsmarter":6356,"riends":6357,"ops":6358,"Ġscales":6359,"Ġrobb":6360,"Ġchuck":6361,"Ġflight":6362,"Ġcatches":6363,"Ġslam":6364,"Ġsnuck":6365,"acy":6366,"Ġwaiter":6367,"ĠGina":6368,"ĠNan":6369,"umbling":6370,"Ġentrance":6371,"Ġrepaired":6372,"ĠRemember":6373,"Ġwhispers":6374,"Ġprayer":6375,"Ġawo":6376,"Ġcracked":6377,"However":6378,"ĠMarie":6379,"ĠSpark":6380,"ĠDanny":6381,"ĠAbi":6382,"Ġprettiest":6383,"Ro":6384,"abby":6385,"fly":6386,"yond":6387,"zen":6388,"hell":6389,"Ġtigers":6390,"Ġtangled":6391,"Ġdipped":6392,"Ġdais":6393,"Ġwasted":6394,"Ġmes":6395,"Ġthreat":6396,"Ġbeyond":6397,"Ġrising":6398,"Ġtheirs":6399,"ica":6400,"Ġbacked":6401,"?\",":6402,"opes":6403,"Ġnoon":6404,"Ġswirl":6405,"essie":6406,"Ġhandful":6407,"oys":6408,"ĠPip":6409,"ĠGet":6410,"Ġcrumbs":6411,"Ġdarker":6412,"Ġgrowls":6413,"Ġdragons":6414,"Ġhealth":6415,"Ġspreading":6416,"Ġsplashes":6417,"Ġrecipe":6418,"Goodbye":6419,"Ġdecorating":6420,"Ġfolding":6421,"ĠLeave":6422,"Ġdetermination":6423,"Ġsquares":6424,"Ġtricky":6425,"Ġimproved":6426,"...":6427,"Unfortunately":6428,"Ġtravelled":6429,"Ġaccomplishment":6430,"Ġraindrops":6431,"Ġparticular":6432,"ĠWiggly":6433,"Ġtissue":6434,"Ġdaisies":6435,"Ġmesmer":6436,"--":6437,"Wh":6438,"eal":6439,"mpt":6440,"ners":6441,"ratul":6442,"Ġlined":6443,"Ġrout":6444,"unched":6445,"Ġgobbled":6446,"Ġsparrow":6447,"ongratul":6448,"ĠJackie":6449,"Ġsnakes":6450,"ÅĵMommy":6451,"Ġwindy":6452,"Ġcolored":6453,"Ġheading":6454,"athy":6455,"Ġsticking":6456,"Ġopening":6457,"ulu":6458,"ĠOut":6459,"Ġhonk":6460,"Ġsalty":6461,"Toby":6462,"ĠFinn":6463,"Ġsurfing":6464,"Ġprovided":6465,"Ġstudents":6466,"Ġburst":6467,"Ġsausages":6468,"ĠJudy":6469,"Ġseashell":6470,"Ġincluded":6471,"Ġstroll":6472,"ĠNothing":6473,"Ġheavier":6474,"ĠPrincess":6475,"ĠFarmer":6476,"An":6477,"During":6478,"Ellie":6479,"lings":6480,"lves":6481,"Ġaff":6482,"Ġsense":6483,"Ġmittens":6484,"llen":6485,"ently":6486,"ĠMartha":6487,"Ġgoals":6488,"Ġfears":6489,"Ġroses":6490,"ashed":6491,"Ġchop":6492,"ept":6493,"Ġswept":6494,"arac":6495,"Ġneedles":6496,"Thomas":6497,"though":6498,"Ġrainy":6499,"Josh":6500,"Ġuses":6501,"Ġchoices":6502,"Ġforgetting":6503,"Ġexpress":6504,"Ġsuitc":6505,"Ġmatching":6506,"ĠWithout":6507,"Ġkicks":6508,"ĠChloe":6509,"Ġtrips":6510,"Ġcelebrating":6511,"ĠStella":6512,"ĠBeing":6513,"Ġcopy":6514,"ĠZip":6515,"ĠZoom":6516,"Ġunpacked":6517,"ĠAlways":6518,"Ġwiggle":6519,"Ġflavors":6520,"Ġsewing":6521,"alloween":6522,"Yeah":6523,"Ġfarther":6524,"Ġraincoat":6525,"Ġconflict":6526,"Ġchuckled":6527,"Fine":6528,"Lilly":6529,"Millie":6530,"Ruby":6531,"Uh":6532,"Whe":6533,"cl":6534,"mies":6535,"per":6536,"tle":6537,"Ġcause":6538,"arling":6539,"Ġnur":6540,"immer":6541,"ĠHalloween":6542,"ppers":6543,"Ġplayers":6544,"ĠBir":6545,"ĠBinky":6546,"ĠMany":6547,"ĠJacob":6548,"ddled":6549,"Ġfact":6550,"Ġcharac":6551,"ĠEva":6552,"Ġlearns":6553,"Ġtractor":6554,"Ġruining":6555,"Ġrestored":6556,"Ġamong":6557,"Ġfrozen":6558,"ults":6559,"Ġbows":6560,"Ġcreativity":6561,"Ġpolar":6562,"Ġrivers":6563,"Ġmisses":6564,"Ġpassen":6565,"Ġroads":6566,"ivia":6567,"Meow":6568,"Ġrewarded":6569,"cuse":6570,"Ġcomplained":6571,"Ġbreathed":6572,"Ġseconds":6573,"Ġachieved":6574,"Ġexplorers":6575,"ĠSadly":6576,"Ġforgiven":6577,"Ġwidened":6578,"Ġdirections":6579,"Ġcharacter":6580,"Que":6581,"Tina":6582,"ears":6583,"hil":6584,"no":6585,"uly":6586,"uzzy":6587,"zes":6588,"ĠĠĊ":6589,"Ġfara":6590,"Ġdet":6591,"Ġdarling":6592,"ern":6593,"ĠTam":6594,"Ġearn":6595,"Ġbelly":6596,"Ġrings":6597,"Ġropes":6598,"river":6599,"Ġweeke":6600,"choo":6601,"allowed":6602,"Ġlosing":6603,"Ġbodies":6604,"Ġspike":6605,"uments":6606,"Ġmane":6607,"Ġflames":6608,"ĠEarth":6609,"Ġswallowed":6610,"Ġpeck":6611,"Ġpuff":6612,"ĠJojo":6613,"Ġcubs":6614,"Ġwrist":6615,"Ġdeal":6616,"Ġrubs":6617,"Ġarr":6618,"Ġbits":6619,"Ġsweetest":6620,"Ġcreations":6621,"Ġdrives":6622,"Ġplans":6623,"Ġshaped":6624,"brush":6625,"Ġspoonful":6626,"ĠThanks":6627,"Ġmailed":6628,"Ġreply":6629,"Ġspeaking":6630,"Ġexamined":6631,"ĠZero":6632,"Grace":6633,"Ġforks":6634,"Ġcuddly":6635,"Rex":6636,"Ġneatly":6637,"Ġexperien":6638,"Ġpaddle":6639,"Ġsandcastles":6640,"Ġminerals":6641,"Ġdiscussed":6642,"Ġsprinkled":6643,"ĠMaya":6644,"Ġweeping":6645,"Ġhesitant":6646,"Ġhesitated":6647,"Ġaccomplished":6648,"iki":6649,"Leo":6650,"Excuse":6651,"Ġpouted":6652,"Maria":6653,"Queen":6654,"Ġfaraway":6655,"Ġweekend":6656,"Bet":6657,"Bun":6658,"Great":6659,"Have":6660,"James":6661,"Mimi":6662,"Nemo":6663,"ixture":6664,"Ġcor":6665,"Ġcongratul":6666,"Ġlimes":6667,"Ġmaker":6668,"Ġmixture":6669,"ĠTilly":6670,"Ġgap":6671,"ids":6672,"Ġech":6673,"igger":6674,"Ġstung":6675,"Ġstern":6676,"Ġhissed":6677,"ads":6678,"eling":6679,"ĠBig":6680,"ĠBye":6681,"ĠBonnie":6682,"itted":6683,"Ġliqu":6684,"ĠMaisy":6685,"Ġlogs":6686,"Ġmeals":6687,"ĠEls":6688,"Ġpeppers":6689,"Ġskill":6690,"Ġsnugg":6691,"Ġtempt":6692,"ĠCra":6693,"ĠCindy":6694,"ÅĵDo":6695,"Ġfoods":6696,"Ġuns":6697,"Ġunited":6698,"Ġafterwards":6699,"ĠRyan":6700,"Ġamount":6701,"Ġbehavi":6702,"Ġpromises":6703,"Ġcrashing":6704,"ĠThatÃ¢":6705,"Ġpolitely":6706,"Ġplanning":6707,"Ġprove":6708,"Ġcupcakes":6709,"Ġstreets":6710,"Ġshops":6711,"Ġactiv":6712,"Ġhopeful":6713,"Ġshrinking":6714,"Ġwipes":6715,"Ġfishes":6716,"Ġbatteries":6717,"Ġtoaster":6718,"Ġpumpkins":6719,"Ġdelivered":6720,"Ġresisted":6721,"Ġsupported":6722,"Ġseparated":6723,"Ġrequested":6724,"ĠFox":6725,"Ġsuffering":6726,"Ġpurr":6727,"Ġsports":6728,"Annie":6729,"Tweety":6730,"Ġrusty":6731,"ĠSadie":6732,"Ġcalmed":6733,"Ġdamage":6734,"Ġresult":6735,"ĠSquirrel":6736,"Ġannoy":6737,"Ġcottage":6738,"Ġcousin":6739,"Ġsnowballs":6740,"Ġawoke":6741,"Ġactivities":6742,"Bear":6743,"Days":6744,"Pat":6745,"Penny":6746,"Paul":6747,"Tony":6748,"driver":6749,"ias":6750,"oor":6751,"ossible":6752,"ubbed":6753,"Ġsib":6754,"Ġwow":6755,"Ġtouc":6756,"Ġbom":6757,"Ġwaddled":6758,"Ġmerry":6759,"ĠTess":6760,"Ġopp":6761,"Ġthird":6762,"Ġrott":6763,"ĠthatÃ¢":6764,"Ġwept":6765,"Ġwears":6766,"ĠBy":6767,"ĠMichael":6768,"idey":6769,"ĠAnt":6770,"Ġbackwards":6771,"Ġcans":6772,"Ġclick":6773,"Ġhomework":6774,"ĠLulu":6775,"Ġwilling":6776,"Ġtruly":6777,"Ġadult":6778,"Ġbravery":6779,"ÅĵWow":6780,"Ġimpossible":6781,"Ġconvers":6782,"Ġcoloring":6783,"ĠRain":6784,"Ġsquishy":6785,"Ġhaird":6786,"Ġdraws":6787,"Ġhides":6788,"anging":6789,"Ġpots":6790,"Ġhealed":6791,"Ġremote":6792,"ĠOwl":6793,"Ġpeacefully":6794,"Bobo":6795,"Ġdesert":6796,"Ġcrossing":6797,"Ġchocolates":6798,"Ġscrubbed":6799,"Ġpaying":6800,"ĠBaa":6801,"Ġleads":6802,"Ġleading":6803,"Ġargument":6804,"ĠDavey":6805,"Ġknocks":6806,"Ġscrewdriver":6807,"Ġwires":6808,"Ġfirefight":6809,"Ġwarnings":6810,"Frank":6811,"Ġfreedom":6812,"ĠAmelia":6813,"Ġmonths":6814,"Ġrotten":6815,"Baby":6816,"Ducky":6817,"For":6818,"cus":6819,"eeling":6820,"found":6821,"lue":6822,"urious":6823,"vest":6824,"whe":6825,"yes":6826,"Ġwink":6827,"Ġbak":6828,"Ġhi":6829,"Ġfant":6830,"Ġlamb":6831,"Ġdots":6832,"Ġpins":6833,"Ġgross":6834,"ences":6835,"Ġnu":6836,"ĠSun":6837,"ĠSorry":6838,"Ġbeads":6839,"Ġsobbed":6840,"ntil":6841,"addie":6842,"unity":6843,"ĠBow":6844,"ĠBee":6845,"ĠBecause":6846,"Ġlied":6847,"Ġshoo":6848,"Ġrefu":6849,"Ġreapp":6850,"Ġaside":6851,"Ġaren":6852,"Ġalien":6853,"Ġcosy":6854,"Ġflipped":6855,"ĠDot":6856,"bbly":6857,"Ġpeas":6858,"Ġpecked":6859,"Ġtramp":6860,"Ġtwice":6861,"ĠEverybody":6862,"Ġsnat":6863,"Ġteased":6864,"ĠRay":6865,"ĠRicky":6866,"ĠJaney":6867,"Ġdropping":6868,"Ġmuscle":6869,"Ġsnowmen":6870,"Ġgrowl":6871,"Ġrolls":6872,"Ġremembering":6873,"Ġbeeh":6874,"Ġfits":6875,"Ġattack":6876,"Ġwrapping":6877,"Ġpraying":6878,"Ġlemons":6879,"Ġwandering":6880,"ophia":6881,"Ġrefle":6882,"Ġsneezing":6883,"Ġguns":6884,"Ġsilence":6885,"Ġstatues":6886,"Ġcurly":6887,"Ġbackpacks":6888,"Ġmushrooms":6889,"Ġappreciation":6890,"Ġitchy":6891,"Ġrefreshing":6892,"ĠFoxy":6893,"Ġinstruments":6894,"Ġseason":6895,"Ġfamiliar":6896,"ĠOlivia":6897,"Sadly":6898,"Ġbehaved":6899,"Ġbeginning":6900,"Ġslammed":6901,"Ġafford":6902,"Ġsuitcase":6903,"Ġliquid":6904,"Ġsiblings":6905,"Ġfantastic":6906,"Ew":6907,"Miss":6908,"Mira":6909,"ky":6910,"ĊĊ":6911,"Ġtossed":6912,"rect":6913,"ouch":6914,"erk":6915,"Ġnine":6916,"ora":6917,"ords":6918,"onny":6919,"Ġthro":6920,"esome":6921,"aming":6922,"Ġrumble":6923,"Ġsofter":6924,"sty":6925,"Ġdod":6926,"alph":6927,"Ġnect":6928,"Ġnotes":6929,"Ġsped":6930,"Ġclerk":6931,"elle":6932,"Ġchoo":6933,"ĠFuzzy":6934,"Ġthoughts":6935,"Ġfocus":6936,"ÅĵCome":6937,"Ġstays":6938,"obody":6939,"Ġbadge":6940,"resser":6941,"Ġsmiley":6942,"ĠPl":6943,"Ġhandsome":6944,"Ġdef":6945,"Ġdresser":6946,"Ġblocked":6947,"Ġtricked":6948,"Ġlighter":6949,"Ġhider":6950,"ĠKayla":6951,"Ġguest":6952,"Ġbelts":6953,"Ġdistract":6954,"Ġreport":6955,"Ġdiving":6956,"Ġbathing":6957,"Ġnervously":6958,"Ġscarves":6959,"ĠBecky":6960,"Ġwraps":6961,"Ġadding":6962,"ĠUntil":6963,"Ġstacked":6964,"Ġencourag":6965,"Ġavoid":6966,"Ġvideos":6967,"Ġmagnets":6968,"ĠPatch":6969,"Ġcountryside":6970,"Ġdelayed":6971,"Ġresponsib":6972,"lowers":6973,"Ġfluttered":6974,"Ġproper":6975,"Ġincreased":6976,"Ġrecommended":6977,"Ġpunishment":6978,"ĠLiza":6979,"ĠFroggy":6980,"Ġ10":6981,"Ġdeserve":6982,"Ġtipt":6983,"Ġcongratulated":6984,"Ġhairdresser":6985,"Ġbakery":6986,"Ġbeehive":6987,"Ġreflection":6988,"Ġthroat":6989,"Ġnectar":6990,"Bill":6991,"Our":6992,"Oops":6993,"Rose":6994,"Ted":6995,"cited":6996,"munk":6997,"we":6998,"while":6999,"Ġhour":7000,"itched":7001,"Ġcoup":7002,"Ġcoral":7003,"Ġlun":7004,"Ġhen":7005,"Ġhearing":7006,"ĠTiny":7007,"ĠSlowly":7008,"anwhile":7009,"onna":7010,"Ġease":7011,"Ġonward":7012,"Ġweeds":7013,"ĠBer":7014,"Ġbond":7015,"Ġhelpers":7016,"aren":7017,"Ġscored":7018,"ickie":7019,"iece":7020,"Ġcond":7021,"Ġnewfound":7022,"Ġchos":7023,"ĠEl":7024,"Ġknees":7025,"bbing":7026,"ĠFriends":7027,"Ġtrot":7028,"Ġslither":7029,"Ġslices":7030,"Ġskunk":7031,"iona":7032,"Ġjoking":7033,"meal":7034,"asty":7035,"bee":7036,"ĠThose":7037,"Ġdrawers":7038,"ĠDog":7039,"Ġelf":7040,"oline":7041,"Ġcreamy":7042,"Ġsisters":7043,"ments":7044,"Ġdived":7045,"Ġtoolbox":7046,"Ġimagining":7047,"Ġpoliceman":7048,"Ġwishing":7049,"Ġcovers":7050,"Ġawesome":7051,"Ġfrowns":7052,"ĠUp":7053,"Ġtemper":7054,"Ġseems":7055,"Ġsending":7056,"Ġghosts":7057,"Ġdisplayed":7058,"Ġhallway":7059,"Ġsuperheroes":7060,"Ġexercises":7061,"Ġtwinkle":7062,"Ġsneaky":7063,"Ġtrembled":7064,"Shh":7065,"rrr":7066,"Ġoatmeal":7067,"Ġchipmunk":7068,"Ġmesmerized":7069,"Ġpassengers":7070,"Ġtrampoline":7071,"Ġchosen":7072,"Claire":7073,"Fin":7074,"Run":7075,"aa":7076,"coon":7077,"cope":7078,"ibbit":7079,"weed":7080,"Ġtodd":7081,"Ġhitting":7082,"Ġwag":7083,"Ġlent":7084,"Ġmood":7085,"Ġmunch":7086,"Ġmaster":7087,"ĠTara":7088,"ĠTuna":7089,"Ġnasty":7090,"ori":7091,"oni":7092,"ĠHoney":7093,"Ġund":7094,"ĠAdam":7095,"Ġscamp":7096,"Ġprun":7097,"ĠEx":7098,"Ġdads":7099,"Ġyourselves":7100,"Ġovercome":7101,"Ġexplod":7102,"ĠAnnabel":7103,"ÅĵOkay":7104,"Ġunfortunately":7105,"Ġdisob":7106,"Ġdefe":7107,"Ġtoward":7108,"Ġrule":7109,"ĠNobody":7110,"ĠJohnson":7111,"Ġcuriously":7112,"ĠKiki":7113,"otte":7114,"Ġpotion":7115,"emma":7116,"Ġseaweed":7117,"Ġbusiness":7118,"Ġcorners":7119,"Ġlifts":7120,"Ġpops":7121,"ĠOw":7122,"ĠGold":7123,"Ġspears":7124,"Ġgasp":7125,"Ġsource":7126,"Ġfeeding":7127,"Ġseeker":7128,"Ġprick":7129,"Meanwhile":7130,"arlotte":7131,"Ġscratches":7132,"Ġsharks":7133,"ĠBetty":7134,"Ġdesigned":7135,"Ġdusty":7136,"Ġsurroundings":7137,"Ġbricks":7138,"ĠLouise":7139,"Ġprettier":7140,"Ġgranted":7141,"Ġscraped":7142,"Ġconnect":7143,"ĠMeg":7144,"Ġinspired":7145,"Ġroutine":7146,"Whee":7147,"Ġsnatched":7148,"Boo":7149,"Back":7150,"Gina":7151,"bro":7152,"ebs":7153,"tuce":7154,"what":7155,"xop":7156,"Ġ2":7157,"ĠX":7158,"rees":7159,"ita":7160,"Ġheight":7161,"Ġmel":7162,"ĠTake":7163,"Ġoh":7164,"Ġgonna":7165,"Ġsaxop":7166,"ĠSid":7167,"ĠSatur":7168,"amma":7169,"Ġstitch":7170,"ados":7171,"step":7172,"ĠBert":7173,"Ġshown":7174,"sequ":7175,"Ġneare":7176,"Ġneither":7177,"ĠMina":7178,"Ġspices":7179,"Ġknots":7180,"Ġnoses":7181,"Ġscient":7182,"Ġmanag":7183,"Ġmemb":7184,"ĠWater":7185,"Ġage":7186,"Ġchanging":7187,"Ġgoodies":7188,"ĠMomma":7189,"Ġposter":7190,"ÅĵBut":7191,"ÅĵPlease":7192,"Ġwobbled":7193,"Ġlettuce":7194,"Ġconcer":7195,"Ġconsequ":7196,"Ġrushing":7197,"Ġsquin":7198,"ushed":7199,"Ġtricy":7200,"Ġslower":7201,"ĠwonÃ¢":7202,"Ġheartbro":7203,"Ġstands":7204,"Ġrespond":7205,"ounce":7206,"Ġgiggles":7207,"Ġdespite":7208,"Ġpuzzled":7209,"Ġpaths":7210,"Ġhumming":7211,"Ġhumans":7212,"Ġvanilla":7213,"ĠOnly":7214,"Ġprayers":7215,"Ġswans":7216,"Ġtasks":7217,"Ġsilent":7218,"Ġdelivering":7219,"years":7220,"Ġcobwebs":7221,"Ġaeroplanes":7222,"Ġfuzzy":7223,"Ġtwinkled":7224,"Ġartist":7225,"Ġstroked":7226,"Ġseagulls":7227,"ambi":7228,"ĠGoodbye":7229,"Alright":7230,"ĠOlive":7231,"Ġtalented":7232,"Ġgreeted":7233,"Ġflashing":7234,"Clara":7235,"Ġcustomers":7236,"Ġmaterial":7237,"Ġcorrect":7238,"Ġconversation":7239,"Ġtiptoed":7240,"Ġlungs":7241,"Ġtoddler":7242,"Ġsaxophone":7243,"ĠSaturday":7244,"Ġscientist":7245,"Ġtricycle":7246,"Ġheartbroken":7247,"Blue":7248,"Even":7249,"Fred":7250,"Kim":7251,"Lena":7252,"Rosie":7253,"Sandy":7254,"Woof":7255,"Yummy":7256,"band":7257,"nk":7258,"rig":7259,"upt":7260,"vant":7261,"ĠQueen":7262,"Ġais":7263,"Ġwins":7264,"Ġbless":7265,"Ġbuddy":7266,"Ġpens":7267,"ĠTy":7268,"Ġsank":7269,"oration":7270,"Ġthud":7271,"espite":7272,"Ġrip":7273,"ppa":7274,"Ġplain":7275,"stick":7276,"Ġplaytime":7277,"Ġform":7278,"ĠBad":7279,"Ġreass":7280,"Ġspills":7281,"inda":7282,"Ġleast":7283,"Ġscut":7284,"Ġchilly":7285,"Ġthanking":7286,"ĠDr":7287,"Ġpokes":7288,"Ġtapped":7289,"Ġtapping":7290,"Ġtrans":7291,"Ġsled":7292,"Ġends":7293,"Ġcleared":7294,"Ġracc":7295,"Ġgardener":7296,"Ġfinal":7297,"Ġconqu":7298,"Ġstopping":7299,"Ġdoorway":7300,"Ġwrigg":7301,"Ġthrown":7302,"ĠPurple":7303,"Ġgrassy":7304,"Ġsteady":7305,"Ġthroughout":7306,"rench":7307,"Ġtighter":7308,"Ġlessons":7309,"Ġdreamt":7310,"Ġsailors":7311,"Ġpaintbrush":7312,"Ġdragonfly":7313,"Ġneighbours":7314,"Ġbowls":7315,"ounced":7316,"Ġwhistles":7317,"ĠOur":7318,"ĠJennie":7319,"Ġmatters":7320,"ĠChickie":7321,"Ġpans":7322,"Ġshrug":7323,"Ġcalmly":7324,"ĠStart":7325,"Ġfigures":7326,"Ġexamining":7327,"Ġwiping":7328,"Ġfrowning":7329,"Ġstreamers":7330,"Ġscratching":7331,"Ġsurfboard":7332,"Ġrepeating":7333,"Ġpreparing":7334,"Ġbulbs":7335,"Ġpenguins":7336,"Ġperformance":7337,"Ġbreathing":7338,"Ġenthusias":7339,"Ġbuzzed":7340,"Ġstomped":7341,"Ġavocados":7342,"ĠJessica":7343,"Ġbothered":7344,"Ġrotting":7345,"ĠRoxy":7346,"Ġcubes":7347,"ĠJean":7348,"Danny":7349,"ĠQuackers":7350,"Ġsweaters":7351,"Katie":7352,"Ġtype":7353,"Ġconnected":7354,"Ġcenter":7355,"Abigail":7356,"ĠSqueaky":7357,"immering":7358,"ĠBirthday":7359,"Ġcharacters":7360,"Ġnuzz":7361,"ĠSunshine":7362,"Ġencouraging":7363,"Ġresponsibility":7364,"Ġtemperature":7365,"Ġscampered":7366,"Ġprunes":7367,"Ġexploded":7368,"Ġprickly":7369,"rigued":7370,"Ġtransf":7371,"Ġraccoon":7372,"Ġenthusiasm":7373,"By":7374,"Bunny":7375,"Dear":7376,"David":7377,"Mel":7378,"Pe":7379,"Tr":7380,"bu":7381,"crow":7382,"fall":7383,"fire":7384,"ibble":7385,"now":7386,"worm":7387,"Ëľ":7388,"Ġaud":7389,"Ġwrench":7390,"Ġhus":7391,"Ġfaded":7392,"Ġcoug":7393,"Ġdep":7394,"Ġdip":7395,"Ġpound":7396,"ĠTerry":7397,"Ġnapping":7398,"Ġsale":7399,"ĠSleep":7400,"iment":7401,"ana":7402,"anc":7403,"anny":7404,"veral":7405,"ĠMil":7406,"Ġseveral":7407,"ĠAny":7408,"Ġclues":7409,"âĤ¬Ëľ":7410,"Ġlaces":7411,"ĠLove":7412,"Ġflown":7413,"istory":7414,"Ġgrandp":7415,"retty":7416,"Ġhanding":7417,"Ġwatering":7418,"Ġoffic":7419,"Ġuntied":7420,"Ġfocu":7421,"Ġbravest":7422,"Ġdonkey":7423,"ÅĵHey":7424,"ÅĵMy":7425,"Ġwobble":7426,"Ġfinishing":7427,"Ġstored":7428,"sol":7429,"Ġdollhouse":7430,"ĠPinky":7431,"ĠPhil":7432,"ĠRock":7433,"ĠNick":7434,"itches":7435,"Ġcrew":7436,"Ġprinting":7437,"Ġtasting":7438,"Ġparties":7439,"Ġseesaw":7440,"Ġcraft":7441,"Ġreads":7442,"Ġperformed":7443,"Ġmuscles":7444,"Ġtalks":7445,"Ġnapkins":7446,"Ġquieter":7447,"Ġbeloved":7448,"Ġcloudy":7449,"Ġchopped":7450,"ĠwouldnÃ¢":7451,"Ġvegg":7452,"Ġyoungest":7453,"Ġlifting":7454,"Ġpastries":7455,"eremy":7456,"Ġtroubles":7457,"Ġhonked":7458,"Ġtidying":7459,"Ġbattle":7460,"Ġdriveway":7461,"Ġrobots":7462,"Ġindeed":7463,"Ġtesting":7464,"Ġrockets":7465,"Ġtwisty":7466,"Ġgarb":7467,"Ġterrified":7468,"Ġcovering":7469,"awk":7470,"Ġsweep":7471,"Ġcuddles":7472,"Ġunlo":7473,"Ġgracefully":7474,"Ġtunnels":7475,"Ġgrandd":7476,"Ġmagnif":7477,"Ġloops":7478,"Ġblinking":7479,"Ġmagazines":7480,"Ġstudent":7481,"Ġlending":7482,"Quick":7483,"Ġdiscussing":7484,"Ġpoems":7485,"ĠFrosty":7486,"Ġpupils":7487,"Ġdamaged":7488,"Ġoutfits":7489,"Ġthorns":7490,"Ġleapt":7491,"Ġsuggestion":7492,"Ġrisks":7493,"Ġparticularly":7494,"Ġarranged":7495,"Ġexperienced":7496,"ĠCrabby":7497,"Ġaudience":7498,"Ġhusband":7499,"Ġgrandparent":7500,"Ġfocused":7501,"Ġveggies":7502,"Buddy":7503,"Kate":7504,"Rachel":7505,"Su":7506,"aven":7507,"cou":7508,"hnn":7509,"lied":7510,"opper":7511,"pen":7512,"vie":7513,"Ġting":7514,"Ġtil":7515,"Ġbison":7516,"initely":7517,"Ġhoo":7518,"erm":7519,"ĠTaking":7520,"Ġnibble":7521,"ĠSophia":7522,"lets":7523,"cker":7524,"igning":7525,"ading":7526,"elvet":7527,"ĠBessie":7528,"Ġreun":7529,"ĠMo":7530,"ĠMacy":7531,"Ġspook":7532,"Ġbru":7533,"ĠWell":7534,"ĠWatch":7535,"Ġtreated":7536,"Ġcharge":7537,"Ġflip":7538,"ĠDuck":7539,"bbling":7540,"Ġslips":7541,"ĠJacky":7542,"Ġsnug":7543,"ĠJoan":7544,"ÅĵHi":7545,"ÅĵWell":7546,"Ġcons":7547,"Ġdrawn":7548,"Ġunw":7549,"Ġwrink":7550,"Ġnearly":7551,"ĠGabby":7552,"Ġache":7553,"Ġstrongest":7554,"Ġsoundly":7555,"Ġbiting":7556,"Ġsmelling":7557,"boards":7558,"ĠKelly":7559,"Ġfoxes":7560,"ĠFlash":7561,"ĠFloppy":7562,"Ġexpert":7563,"Ġcowb":7564,"Ġstarfish":7565,"Ġactivity":7566,"ĠChip":7567,"Ġsupplied":7568,"Ġvalued":7569,"Ġembarrass":7570,"Ġbreaths":7571,"Ġgenerosity":7572,"Ġjackets":7573,"Ġorders":7574,"Ġtwisting":7575,"Ġknights":7576,"Ġhelmets":7577,"Ġscarecrow":7578,"ĠPeppa":7579,"Ġsymbols":7580,"Ġtravels":7581,"Ġpedaled":7582,"Ġmayor":7583,"Ġcampfire":7584,"Ġproviding":7585,"Ġbrushing":7586,"Ġstrips":7587,"Ġburnt":7588,"Ġyielded":7589,"Ġquarreling":7590,"ronaut":7591,"Ġoffering":7592,"abel":7593,"Ġadmiration":7594,"Tweetie":7595,"ĠCoco":7596,"ĠCopper":7597,"pecker":7598,"Ġtravelling":7599,"Ġswaying":7600,"Ġtyp":7601,"Ġseashells":7602,"Ġunsure":7603,"ĠDotty":7604,"Ġdistracted":7605,"Ġcouple":7606,"Ġtrotted":7607,"Ġconsequences":7608,"Ġgarbage":7609,"hnnie":7610,"Ġspooky":7611,"Jazz":7612,"Keep":7613,"Like":7614,"Listen":7615,"Milly":7616,"but":7617,"iving":7618,"mates":7619,"ĠOh":7620,"Ġtipped":7621,"Ġtumbled":7622,"Ġwider":7623,"int":7624,"Ġwakes":7625,"Ġmer":7626,"ĠTry":7627,"Ġocc":7628,"Ġgerm":7629,"Ġnibb":7630,"Ġsadd":7631,"ĠSim":7632,"onse":7633,"ldy":7634,"Ġrather":7635,"Ġstain":7636,"ĠIzzy":7637,"Ġupside":7638,"endy":7639,"Ġrebu":7640,"ĠMaddie":7641,"Ġspat":7642,"Ġdecl":7643,"ĠLarry":7644,"ucker":7645,"Ġblast":7646,"ĠFly":7647,"Ġpeak":7648,"Ġslipping":7649,"Ġque":7650,"ortunately":7651,"Ġtearing":7652,"ÅĵWhere":7653,"Ġwobbly":7654,"Ġglued":7655,"Ġcleaner":7656,"Ġdollars":7657,"ĠPam":7658,"ĠPipp":7659,"Ġrains":7660,"ĠGary":7661,"ĠRuth":7662,"ĠRubb":7663,"ĠRalph":7664,"Ġsquished":7665,"Ġblocking":7666,"Ġleaking":7667,"Ġfires":7668,"Ġwoodpecker":7669,"Ġpointy":7670,"Ġgrows":7671,"Ġbelieving":7672,"Ġsprang":7673,"Ġmarking":7674,"Ġdryer":7675,"Ġresponse":7676,"Ġmiles":7677,"Ġbounces":7678,"ĠOther":7679,"Ġcheerfully":7680,"Ġsurv":7681,"Ġdecoration":7682,"ĠStay":7683,"Ġscram":7684,"Ġspoiling":7685,"Ġborrowed":7686,"Ġdiscoveries":7687,"Ġturtles":7688,"Ġspells":7689,"ĠPepper":7690,"ippers":7691,"Ġmischie":7692,"Ġcrawls":7693,"Ġbumps":7694,"Ġtriangles":7695,"Ġpermitted":7696,"Ġperforming":7697,"Ġarrows":7698,"Chris":7699,"Ġpostman":7700,"Ġluckily":7701,"ĠRoger":7702,"Ġflaps":7703,"ĠFrog":7704,"Ġlicking":7705,"Ġspits":7706,"Ġinchworm":7707,"Ġobeyed":7708,"aisie":7709,"Ġyumm":7710,"Ġscrape":7711,"Ġcustomer":7712,"Ġmaterials":7713,"Ġaston":7714,"Ġastronaut":7715,"Ġwounds":7716,"Ġpuppies":7717,"Ġrobbers":7718,"Ġexpression":7719,"Ġforgiveness":7720,"Ġdetail":7721,"Ġbehavior":7722,"Ġbomb":7723,"Ġopport":7724,"Ġdefinitely":7725,"ĠEliz":7726,"Ġscutt":7727,"Ġgranddaughter":7728,"Ġreunited":7729,"Ġmischievous":7730,"?!\"":7731,"Car":7732,"Jamie":7733,"Matt":7734,"Never":7735,"Polly":7736,"Two":7737,"Watch":7738,"ca":7739,"cent":7740,"oss":7741,"pit":7742,"used":7743,"yl":7744,"Ġsill":7745,"Ġhike":7746,"Ġding":7747,"erg":7748,"Ġmate":7749,"aye":7750,"aying":7751,"isc":7752,"ido":7753,"ening":7754,"ĠSw":7755,"ĠSweet":7756,"ĠHenny":7757,"ĠHannah":7758,"Ġinj":7759,"Ġbeaming":7760,"storm":7761,"Ġplayhouse":7762,"child":7763,"Ġshin":7764,"Ġshady":7765,"Ġwhales":7766,"ĠMamma":7767,"rand":7768,"race":7769,"Ġspies":7770,"Ġexh":7771,"Ġexcept":7772,"icious":7773,"Ġscri":7774,"Ġroars":7775,"Ġagrees":7776,"âĤ¬,":7777,"Ġchanges":7778,"Ġgoodby":7779,"Ġswords":7780,"Ġblond":7781,"Ġpollen":7782,"Ġintrigued":7783,"Ġtweet":7784,"urtle":7785,"Ġadults":7786,"ÅĵMaybe":7787,"ÅĵGood":7788,"covered":7789,"airy":7790,"Ġprints":7791,"Ġparted":7792,"Ġworrying":7793,"Ġelbow":7794,"Ġjoyful":7795,"ĠKeep":7796,"Ġvisits":7797,"Ġvisitor":7798,"Ġbuckled":7799,"Ġforgets":7800,"Ġantic":7801,"Ġafar":7802,"Ġdrivers":7803,"Ġpicnics":7804,"Ġdesper":7805,"Ġlaying":7806,"Ġbanged":7807,"ĠStar":7808,"ĠStrip":7809,"Steve":7810,"iana":7811,"Ġcaw":7812,"Ġseller":7813,"Ġpresses":7814,"Ġdiamonds":7815,"ĠFinny":7816,"Ġbeetles":7817,"Ġgrandchild":7818,"azing":7819,"Ġscolds":7820,"Ġpassports":7821,"Ġspeaker":7822,"Ġpantry":7823,"ĠAlthough":7824,"Ġplanets":7825,"Ġweighs":7826,"Ġsunflowers":7827,"Ġdisturbing":7828,"Ġvibr":7829,"Ġvehicles":7830,"Ġbothering":7831,"Ġburying":7832,"asper":7833,"ĠRobbie":7834,"ably":7835,"abeth":7836,"Ġstroke":7837,"Ġsimply":7838,"Ġscurry":7839,"Ġautomobiles":7840,"ĠVelvet":7841,"Ġglittery":7842,"Ġefforts":7843,"Freddy":7844,"Ġpeeled":7845,"Ġswimsuit":7846,"ĠHootie":7847,"Ġpuppet":7848,"cloth":7849,"Ġechoed":7850,"ĠElsie":7851,"Ġannoyed":7852,"Ġtouches":7853,"Ġfirefighter":7854,"Ġslithered":7855,"Ġdisobey":7856,"Ġwriggled":7857,"ancis":7858,"ĠRubber":7859,"Ġscrambled":7860,"Ġopportunity":7861,"Ġgoodbyes":7862,"Adam":7863,"Arrr":7864,"Che":7865,"Cindy":7866,"Fo":7867,"Je":7868,"Ruth":7869,"Vroom":7870,"belt":7871,"bird":7872,"cake":7873,"cul":7874,"iens":7875,"please":7876,"the":7877,"tto":7878,"ulp":7879,"wise":7880,"Ġ9":7881,"Ġicing":7882,"Ġaimed":7883,"Ġsou":7884,"Ġsens":7885,"Ġtopp":7886,"itude":7887,"Ġwasting":7888,"Ġpuck":7889,"Ġpace":7890,"ĠTime":7891,"atty":7892,"enn":7893,"orter":7894,"order":7895,"ooking":7896,"Ġrin":7897,"Ġwithin":7898,"Ġhissing":7899,"Ġreact":7900,"ĠMaisie":7901,"ĠgirlÃ¢":7902,"Ġspong":7903,"Ġexch":7904,"ĠAg":7905,"ĠAsh":7906,"ĠJonny":7907,"Ġknives":7908,"Ġaliens":7909,"Ġsculp":7910,"Ġfever":7911,"ĠWendy":7912,"dding":7913,"ĠButter":7914,"Ġwhose":7915,"ĠLion":7916,"Ġswap":7917,"ĠDespite":7918,"bba":7919,"Ġposs":7920,"Ġskies":7921,"Ġtwin":7922,"Ġquilt":7923,"Ġexploration":7924,"Ġteles":7925,"ĠColin":7926,"ÅĵSure":7927,"Yesterday":7928,"shirt":7929,"tha":7930,"Ġclimber":7931,"Ġthrone":7932,"ĠPuff":7933,"Ġdiscou":7934,"Ġdears":7935,"Ġdressing":7936,"ngel":7937,"Ġhops":7938,"Ġdrown":7939,"Ġzipping":7940,"Ġunderstands":7941,"Ġmarve":7942,"Ġcounts":7943,"Ġsails":7944,"Ġelect":7945,"Ġvisitors":7946,"Ġguide":7947,"Ġinstantly":7948,"ĠFlora":7949,"Ġteachers":7950,"Ġbaths":7951,"ĠOtto":7952,"Ġbandages":7953,"ĠCharlotte":7954,"ertain":7955,"Ġpanicked":7956,"Ġseatbelt":7957,"Ġserving":7958,"Ġservant":7959,"Ġzookeeper":7960,"Ġself":7961,"Ġminds":7962,"Ġsuccessfully":7963,"Ġclassmates":7964,"Ġwisely":7965,"Ġawful":7966,"Ġrubbish":7967,"Ġloading":7968,"undred":7969,"Ġrepeats":7970,"Ġangels":7971,"Ġheroes":7972,"Ġpigeons":7973,"Ġknocking":7974,"isky":7975,"Ġyawning":7976,"iolet":7977,"Ġrepairman":7978,"Ġthreads":7979,"Ġappreciated":7980,"Ġnewspapers":7981,"ĠWhite":7982,"Ġstomp":7983,"Quack":7984,"Ġreversed":7985,"Ġprevented":7986,"Ġflooded":7987,"ibit":7988,"ĠCatie":7989,"ĠRover":7990,"...\"":7991,"Ġfascinating":7992,"Ġwhispering":7993,"Ġbends":7994,"Ġpaddling":7995,"Ġsirens":7996,"Ġfirefly":7997,"ĠJanie":7998,"Ġspilling":7999,"Ġchefs":8000,"Katy":8001,"Ġfirmly":8002,"ĠAmeli":8003,"Ġrobber":8004,"ĠSparky":8005,"Roar":8006,"Ġearned":8007,"Ġsnuggle":8008,"Ġdefeated":8009,"Ġsquinted":8010,"Ġcorrectly":8011,"Ġaisle":8012,"Ġreassured":8013,"Ġconquered":8014,"Ġnuzzled":8015,"Ġofficers":8016,"Ġmerma":8017,"Ġoccas":8018,"Ġdeclared":8019,"Ġastonished":8020,"ossom":8021,"Ġmatey":8022,"iscuit":8023,"Ġexhibit":8024,"Ġsculpture":8025,"Ġtelescope":8026,"!'.":8027,"11":8028,"Am":8029,"Abby":8030,"Gabby":8031,"Mon":8032,"Mickey":8033,"Ollie":8034,"Surpr":8035,"Since":8036,"Very":8037,"cat":8038,"dges":8039,"filled":8040,"iel":8041,"lt":8042,"los":8043,"ollen":8044,"rons":8045,"sie":8046,"sery":8047,"wk":8048,"ĠOkay":8049,"Ġtuck":8050,"Ġactor":8051,"Ġhundred":8052,"iter":8053,"Ġcau":8054,"Ġheaven":8055,"Ġdie":8056,"Ġdate":8057,"Ġdarl":8058,"Ġmac":8059,"Ġpoop":8060,"ĠTucker":8061,"ĠTurtle":8062,"Ġgest":8063,"Ġgears":8064,"ative":8065,"Ġnood":8066,"Ġsav":8067,"Ġhawk":8068,"ĠSay":8069,"ĠSand":8070,"ĠHistory":8071,"ĠHopper":8072,"Ġinter":8073,"utter":8074,"ooke":8075,"ighing":8076,"Ġroo":8077,"Ġrips":8078,"Ġrumbling":8079,"Ġsoaking":8080,"Ġhiss":8081,"rier":8082,"Ġplo":8083,"Ġplumber":8084,"adually":8085,"ĠBarry":8086,"ĠBambi":8087,"ittered":8088,"Ġshh":8089,"Ġshorter":8090,"Ġkings":8091,"Ġnoticing":8092,"ĠMa":8093,"ĠMs":8094,"Ġsmashed":8095,"Ġspins":8096,"Ġspee":8097,"ĠAbbie":8098,"ĠAngel":8099,"Ġallerg":8100,"Ġnodding":8101,"Ġscen":8102,"Ġscener":8103,"Ġmanners":8104,"Ġbride":8105,"ĠWillie":8106,"Ġbirdy":8107,"Ġbirdhouse":8108,"Ġprob":8109,"Ġchatter":8110,"ssy":8111,"ĠLooking":8112,"Ġswollen":8113,"Ġblown":8114,"Ġblushed":8115,"aps":8116,"antha":8117,"ĠFaye":8118,"Ġsunsc":8119,"Ġwaters":8120,"acey":8121,"Ġpretz":8122,"iley":8123,"Ġstrum":8124,"Ġuntie":8125,"Ġchecks":8126,"Ġraking":8127,"ÅĵMom":8128,"ÅĵBe":8129,"ÅĵWho":8130,"ÅĵOk":8131,"Ġwolves":8132,"Whenever":8133,"ipation":8134,"Ġconvin":8135,"Ġwriter":8136,"ĠPoor":8137,"Ġforests":8138,"ĠNever":8139,"Ġwarmer":8140,"issa":8141,"Ġsteer":8142,"Ġsandy":8143,"Ġmesses":8144,"Ġdripping":8145,"Ġfloors":8146,"Ġbowing":8147,"Ġhotter":8148,"lfie":8149,"Ġcountries":8150,"Ġprod":8151,"Ġactive":8152,"Ġaction":8153,"Ġwarri":8154,"Ġpreschool":8155,"Ġrespected":8156,"Ġanswering":8157,"Ġaprons":8158,"Ġcarts":8159,"onya":8160,"Ġreminds":8161,"Ġignoring":8162,"Ġpleas":8163,"ĠBrooke":8164,"Ġauntie":8165,"Ġpressing":8166,"Ġedges":8167,"Ġtires":8168,"Ġapologised":8169,"Ġgoats":8170,"Ġbracelets":8171,"Ġenclos":8172,"ĠSpe":8173,"ĠSpidey":8174,"Ġcushions":8175,"ĠFrancis":8176,"Ġscattering":8177,"Ġhooks":8178,"Ġsuits":8179,"Ġdesigns":8180,"Ġgems":8181,"Ġmillion":8182,"uctor":8183,"Chloe":8184,"Ġtubes":8185,"Ġuniforms":8186,"Ġwiggly":8187,"ĠTrust":8188,"Ġsqueaked":8189,"Ġrows":8190,"ĠIsn":8191,"ĠIsla":8192,"Ġsewed":8193,"ĠQuick":8194,"Ġcalming":8195,"Leave":8196,"Ġforgiving":8197,"Ġchatted":8198,"Ġbehaving":8199,"Someone":8200,"Ġnurses":8201,"Ġnursery":8202,"Betsy":8203,"Ġdodged":8204,"Ġguests":8205,"Ġconductor":8206,"Ġmunching":8207,"Ġpopsic":8208,"Ġmanager":8209,"Ġconcert":8210,"Ġresponded":8211,"Ġtransformed":8212,"Ġcoughed":8213,"ĠSleepy":8214,"Ġgrandparents":8215,"Ġtilted":8216,"Ġconsider":8217,"Ġsadder":8218,"Ġqueens":8219,"Ġsurvive":8220,"Ġastronauts":8221,"Ġscuttled":8222,"Ġblonde":8223,"Ġanticipation":8224,"Ġvibrant":8225,"Ġsponge":8226,"Ġdiscouraged":8227,"Ġcausing":8228,"Ġdarlings":8229,"Ġspeech":8230,"Ġscenery":8231,"Ġprobably":8232,"Ġsunscreen":8233,"Ġenclosure":8234,",'":8235,"Any":8236,"Feeling":8237,"HE":8238,"Hannah":8239,"Hurry":8240,"Mila":8241,"Mina":8242,"Put":8243,"Red":8244,"Sunny":8245,"bie":8246,"cr":8247,"fl":8248,"ial":8249,"ippy":8250,"lers":8251,"line":8252,"mered":8253,"mallow":8254,"po":8255,"she":8256,"tment":8257,"von":8258,"well":8259,"Ġ4":8260,"Ġouch":8261,"Ġbound":8262,"rent":8263,"Ġmarsh":8264,"Ġpurp":8265,"Ġpours":8266,"ĠTe":8267,"Ġgri":8268,"Ġgazing":8269,"ilities":8270,"ata":8271,"ators":8272,"Ġthie":8273,"ĠHold":8274,"otch":8275,"Ġem":8276,"Ġev":8277,"Ġbeast":8278,"Ġstinky":8279,"Ġplug":8280,"Ġplugged":8281,"Ġmommies":8282,"Ġshines":8283,"Ġwhimp":8284,"Ġkittens":8285,"Ġketch":8286,"ĠMake":8287,"Ġsmelt":8288,"Ġspare":8289,"ĠJax":8290,"ĠJul":8291,"oped":8292,"Ġscent":8293,"ĠWin":8294,"ddie":8295,"Ġfaith":8296,"Ġfailed":8297,"agic":8298,"ĠLions":8299,"ĠListen":8300,"ĠEat":8301,"Ġgrabbing":8302,"ĠFiona":8303,"Ġposes":8304,"Ġintently":8305,"Ġrunner":8306,"Ġsmallest":8307,"Ġfond":8308,"Ġsnort":8309,"Ġcheers":8310,"ĠCr":8311,"ĠCathy":8312,"Ġloudest":8313,"ÅĵThe":8314,"shaped":8315,"Ġglided":8316,"Ġglimmering":8317,"Ġglittered":8318,"Ġconcent":8319,"Ġwinds":8320,"Ġsurely":8321,"Ġmeaning":8322,"Ġsquir":8323,"Ġnights":8324,"Ġwarmly":8325,"Ġfloats":8326,"Ġsoftened":8327,"uffin":8328,"Ġmagician":8329,"Ġslowed":8330,"Ġcolder":8331,"Ġtables":8332,"ugging":8333,"Ġtails":8334,"Ġguards":8335,"Ġprog":8336,"Ġjobs":8337,"Ġjoining":8338,"Ġplanting":8339,"ordinary":8340,"Ġcourt":8341,"Ġbuses":8342,"Ġbushy":8343,"Ġretri":8344,"Ġrecorder":8345,"ÅĵIf":8346,"Ġdiaper":8347,"Ġshrunk":8348,"Ġcoop":8349,"Ġreminding":8350,"Ġrobin":8351,"Ġmotorb":8352,"ĠDonÃ¢":8353,"Ġelder":8354,"Ġcapture":8355,"Ġengines":8356,"Ġstamped":8357,"ĠZara":8358,"Ġlowered":8359,"faction":8360,"Ġsqueezes":8361,"udged":8362,"Ġmosquitoes":8363,"Ġscares":8364,"ĠUnder":8365,"Ġspelling":8366,"Ġenviron":8367,"Ġsneaking":8368,"Ġgrandson":8369,"Ġspeeding":8370,"Ġironing":8371,"Ġsuffered":8372,"Ġsqueak":8373,"Ġornaments":8374,"Ġcontainer":8375,"Ġsatisfaction":8376,"ĠFrankie":8377,"Sadie":8378,"Ġcotton":8379,"ĠCarla":8380,"ĠSqueak":8381,"Which":8382,"Ġtemptation":8383,"Ġpurrs":8384,"ĠRainbow":8385,"Ġreappeared":8386,"ĠBertha":8387,"Ġnearest":8388,"ĠStartled":8389,"True":8390,"Ġmagnifying":8391,"Ġgerms":8392,"ennis":8393,"Ġelectric":8394,"Ġoccasion":8395,"Ġgesture":8396,"Ġconvinced":8397,"ĠSpeedy":8398,"mallows":8399,"vonne":8400,"Ġmarshmallows":8401,"Ġthieves":8402,"Ġketchup":8403,"Ġconcentr":8404,"Ġenvironment":8405,"Curious":8406,"Danger":8407,"Ju":8408,"Jump":8409,"June":8410,"Jacob":8411,"Jessie":8412,"Kids":8413,"Karen":8414,"Lou":8415,"Moo":8416,"Mine":8417,"Michael":8418,"Ol":8419,"Pl":8420,"Rory":8421,"bell":8422,"dog":8423,"free":8424,"hind":8425,"ka":8426,"lmed":8427,"rough":8428,"rup":8429,"that":8430,"uart":8431,"water":8432,"Â¦":8433,"Ġill":8434,"Ġtin":8435,"Ġtum":8436,"Ġtested":8437,"Ġtoss":8438,"Ġbitten":8439,"Ġdot":8440,"Ġmend":8441,"Ġmunched":8442,"ĠTre":8443,"ĠTigger":8444,"aroni":8445,"ingly":8446,"isions":8447,"Ġge":8448,"Ġgoo":8449,"Ġgall":8450,"Ġgates":8451,"Ġgrip":8452,"Ġnatur":8453,"anced":8454,"ĠHolly":8455,"Ġrats":8456,"Ġrays":8457,"Ġstumble":8458,"riet":8459,"Ġforce":8460,"Ġwhoo":8461,"Ġrecess":8462,"ĠMuffin":8463,"rap":8464,"tern":8465,"Ġlocks":8466,"ecca":8467,"Ġexamp":8468,"ĠAf":8469,"ics":8470,"icate":8471,"Ġbacks":8472,"Ġalthough":8473,"Ġscience":8474,"gets":8475,"getic":8476,"Ġfacing":8477,"âĤ¬Â¦":8478,"Ġcocoon":8479,"Ġchugged":8480,"Ġdecisions":8481,"Ġlava":8482,"ĠLa":8483,"ĠEddie":8484,"ousy":8485,"ĠDull":8486,"ĠDee":8487,"essa":8488,"ĠFeeling":8489,"Ġlookout":8490,"Ġposit":8491,"Ġpeep":8492,"Ġtraded":8493,"Ġtrading":8494,"Ġslapping":8495,"Ġoverwhe":8496,"Ġcloak":8497,"Ġwaterfall":8498,"Ġsnoring":8499,"ĠChe":8500,"ĠCow":8501,"ÅĵNow":8502,"ÅĵSee":8503,"ipes":8504,"Ġdoorbell":8505,"oyal":8506,"Ġadventurer":8507,"acle":8508,"ĠPippy":8509,"Ġfishy":8510,"ĠGlow":8511,"Ġdeed":8512,"ĠRory":8513,"ĠNell":8514,"Ġsandpit":8515,"Ġsoftest":8516,"ĠDove":8517,"Jacky":8518,"ĠGrand":8519,"Ġpetting":8520,"empt":8521,"Ġwelcoming":8522,"Ġpackages":8523,"Ġbenches":8524,"Ġattempt":8525,"ĠOver":8526,"ĠOuch":8527,"Ġstorms":8528,"Ġcomforting":8529,"Everyday":8530,"Ġpresented":8531,"Ġcartwhe":8532,"ĠSte":8533,"Ġnets":8534,"Ġcooed":8535,"Ġfolds":8536,"Ġpeacefulness":8537,"Ġsalon":8538,"Ġsprays":8539,"Ġships":8540,"Ġcaves":8541,"Beep":8542,"Ġthicker":8543,"Ġwiser":8544,"Ġcontented":8545,"Ġpays":8546,"Ġfills":8547,"Ġteamwork":8548,"ĠBaldy":8549,"Ġcrowns":8550,"Ġawhile":8551,"Ġcombed":8552,"ĠBubba":8553,"Ġguessing":8554,"Ġloads":8555,"Ġsyrup":8556,"Ġcroaked":8557,"Ġencount":8558,"ĠPebby":8559,"Ġcurrent":8560,"Ġenerg":8561,"Ġenergetic":8562,"Ġsniffing":8563,"Ġmiller":8564,"ĠShadow":8565,"Ġunpacking":8566,"Ġsheets":8567,"Ġfreezing":8568,"Ġbeeped":8569,"Ġreindeers":8570,"Ġsnaps":8571,"Ġkneeling":8572,"Ġartwork":8573,"Ġemerged":8574,"Ġkayaking":8575,"Ġinstrument":8576,"Ġrails":8577,"Ġpalms":8578,"Ġlanguages":8579,"Ġsurrendered":8580,"Always":8581,"Mikey":8582,"ika":8583,"Ġconfidently":8584,"Ġresults":8585,"Ġtextures":8586,"ĠCarlos":8587,"Ġswayed":8588,"Ġannounced":8589,"Ġcousins":8590,"ĠBobbie":8591,"Bubbles":8592,"ĠAuntie":8593,"ĠCarly":8594,"Ġmooed":8595,"ĠNana":8596,"Ġrefuse":8597,"Ġreappear":8598,"citedly":8599,"ĠGoldie":8600,"Ġmelons":8601,"steps":8602,"Ġmembers":8603,"ĠTyler":8604,"solut":8605,"Ġtypes":8606,"Ġrebuild":8607,"Ġyummiest":8608,"ĠElizabeth":8609,"Ġscurrying":8610,"Ġ911":8611,"Ġdrowned":8612,"Ġmermaid":8613,"Surprise":8614,"Ġnoodles":8615,"Ġrooster":8616,"Ġplopped":8617,"Ġallergic":8618,"Ġwarrior":8619,"Ġbounded":8620,"Ġmotorbike":8621,"Ġnatural":8622,"Ġexample":8623,"Ġoverwhelmed":8624,"00":8625,"Beth":8626,"Carl":8627,"Deal":8628,"Jess":8629,"Jerry":8630,"Lucky":8631,"Mo":8632,"Pretty":8633,"Silly":8634,"Sus":8635,"Slowly":8636,"Take":8637,"Zero":8638,"bit":8639,"cher":8640,"da":8641,"earing":8642,"hog":8643,"oard":8644,"ocul":8645,"rum":8646,"val":8647,"wen":8648,"ylves":8649,"Ġtant":8650,"Ġtying":8651,"Ġtumbling":8652,"Ġsly":8653,"Ġsinking":8654,"Ġbou":8655,"Ġcertain":8656,"Ġdou":8657,"Ġdong":8658,"Ġdump":8659,"Ġmitt":8660,"Ġmast":8661,"Ġpurch":8662,"ĠTia":8663,"atitude":8664,"Ġhaven":8665,"ĠSonya":8666,"anion":8667,"Ġthumbs":8668,"lle":8669,"llas":8670,"ĠHar":8671,"ĠHug":8672,"esus":8673,"igi":8674,"Ġrack":8675,"Ġrowed":8676,"Ġribbit":8677,"Ġstitches":8678,"Ġhisses":8679,"ĠmomÃ¢":8680,"Ġshallow":8681,"Ġdolly":8682,"alled":8683,"Ġrev":8684,"ĠMousy":8685,"Ġboil":8686,"iller":8687,"ĠAna":8688,"ĠAlfie":8689,"aint":8690,"Ġalley":8691,"ĠJeremy":8692,"ighting":8693,"Ġclicked":8694,"opsy":8695,"Ġlevers":8696,"Ġsometime":8697,"Ġworn":8698,"ĠwhatÃ¢":8699,"Ġcoach":8700,"ĠYouÃ¢":8701,"Ġchill":8702,"ĠLinda":8703,"ĠLoyal":8704,"plash":8705,"quet":8706,"ously":8707,"uster":8708,"Ġcares":8709,"Ġcarefree":8710,"Ġaboard":8711,"anted":8712,"aula":8713,"Ġslug":8714,"Ġslurp":8715,"Ġskirts":8716,"Ġjoked":8717,"Momma":8718,"Ġgratitude":8719,"Ġjumper":8720,"Ġraces":8721,"ĠCurious":8722,"Ġgardens":8723,"ÅĵOf":8724,"ection":8725,"Ġsurprising":8726,"iped":8727,"Ġcleans":8728,"ths":8729,"ĠPen":8730,"ĠPick":8731,"Ġclosing":8732,"Ġbrightest":8733,"ĠRan":8734,"Ġstores":8735,"Ġhopsc":8736,"Ġzips":8737,"Ġrestoring":8738,"Ġstew":8739,"Ġamused":8740,"uffed":8741,"Ġsleeps":8742,"Ġcontinuing":8743,"Ġjuic":8744,"Ġjudges":8745,"Ġsnowfl":8746,"Ġfights":8747,"Ġcompanion":8748,"ĠKnight":8749,"ĠKathy":8750,"ĠKaren":8751,"Ġproved":8752,"Ġchopping":8753,"toise":8754,"Ġfootsteps":8755,"ĠStan":8756,"ĠStitch":8757,"Ġchicks":8758,"Ġhummed":8759,"Becky":8760,"Ġscrub":8761,"Ġextraordinary":8762,"ictor":8763,"Ġaddress":8764,"Ġumbrellas":8765,"Remy":8766,"Ġsqueezing":8767,"Ġhunting":8768,"ĠPeep":8769,"Ġmotorcycles":8770,"Ġtortoise":8771,"Ġcrocodiles":8772,"Ġscooters":8773,"Ġlabels":8774,"Ġcompliment":8775,"rica":8776,"Ġsniffs":8777,"Ġthunderstorm":8778,"Choo":8779,"Ġskeletons":8780,"Ġscrews":8781,"Ġshovels":8782,"Ġobserving":8783,"Ġerase":8784,"Ġerupt":8785,"Ġtraveling":8786,"Ġexplains":8787,"Ġexplaining":8788,"Ġinsisting":8789,"Ġreversing":8790,"Ġapplause":8791,"Ġexercising":8792,"Ġbinocul":8793,"ibly":8794,"Ġlipstick":8795,"Ġpearls":8796,"ĠRosy":8797,"Ġsqueal":8798,"Ġseasons":8799,"Ġincreasing":8800,"Ġhesitation":8801,"Jenna":8802,"Ġmeowing":8803,"ĠCocoa":8804,"Ġpedaling":8805,"Uncle":8806,"Ġglittering":8807,"Ġscoops":8808,"Ġallowing":8809,"ĠSusy":8810,"Ġachievement":8811,"Ġheavily":8812,"Ġsweaty":8813,"Ġflashed":8814,"Ġrevealing":8815,"Maya":8816,"Ġfacts":8817,"Ġecho":8818,"ĠElsa":8819,"Ġshooed":8820,"Ġattacked":8821,"Ġgasps":8822,"ĠMilo":8823,"Ġcrafts":8824,"Ġhooves":8825,"Carly":8826,"Follow":8827,"Jeff":8828,"Ġexchange":8829,"Ġmacaroni":8830,"Ġscene":8831,"Ġconsiderate":8832,"Ġevil":8833,"Ġprogress":8834,"Ġtummies":8835,"ĠAfrica":8836,"ylvester":8837,"Ġtantrum":8838,"Ġbouquet":8839,"Ġhopscotch":8840,"Ġbinoculars":8841,"',":8842,"Achoo":8843,"Br":8844,"Both":8845,"Bert":8846,"Boys":8847,"Dee":8848,"El":8849,"Jan":8850,"Joy":8851,"Kayla":8852,"Move":8853,"Nice":8854,"Out":8855,"RO":8856,"Ricky":8857,"Ribbit":8858,"Tara":8859,"THE":8860,"Using":8861,"ew":8862,"gre":8863,"hny":8864,"nival":8865,"para":8866,"pect":8867,"rily":8868,"sa":8869,"saw":8870,"vroom":8871,"vince":8872,"ware":8873,"Ãĥ":8874,"Ġaim":8875,"Ġtheat":8876,"Ġbas":8877,"Ġborn":8878,"Ġbaker":8879,"Ġhood":8880,"Ġwanna":8881,"Ġlar":8882,"Ġlan":8883,"Ġdashed":8884,"erina":8885,"ĠTigers":8886,"idence":8887,"atild":8888,"Ġnapped":8889,"ĠSylvester":8890,"immered":8891,"oned":8892,"onies":8893,"lled":8894,"ĠHope":8895,"ĠShelly":8896,"amil":8897,"Ġrink":8898,"ĠIm":8899,"Ġsoda":8900,"stand":8901,"Ġweighing":8902,"elope":8903,"unicate":8904,"ĠBones":8905,"ĠBiff":8906,"Ġlies":8907,"Ġshall":8908,"Ġshave":8909,"Ġshuff":8910,"ĠMiller":8911,"acks":8912,"Ġanger":8913,"Ġloc":8914,"Ġboiled":8915,"urf":8916,"ĠAr":8917,"ĠAcc":8918,"ĠJesus":8919,"Ġclut":8920,"Ġfunn":8921,"aret":8922,"Ġlevel":8923,"Ġscree":8924,"ĠTomorrow":8925,"ĠWelcome":8926,"Ġcarries":8927,"Ġcarnival":8928,"Ġchin":8929,"ĠLenny":8930,"ĠLacey":8931,"Ġflock":8932,"Ġflips":8933,"ĠElly":8934,"Ġswat":8935,"Ġswoop":8936,"Ġswitched":8937,"ousand":8938,"Ġblamed":8939,"Ġblades":8940,"apot":8941,"Ġaband":8942,"Ġability":8943,"ĠFido":8944,"Ġpopping":8945,"ĠSamantha":8946,"Ġballerina":8947,"Ġenem":8948,"Ġcommand":8949,"Ġuntangled":8950,"Ġjoins":8951,"Ġteapot":8952,"ĠJohnnie":8953,"urphy":8954,"Ġgrump":8955,"Ġgrumbled":8956,"Ġcheaper":8957,"Ġbraver":8958,"Ġraising":8959,"ĠCle":8960,"Ġbeautifully":8961,"ÅĵH":8962,"ÅĵYay":8963,"Ġhardest":8964,"oplets":8965,"Ġbadger":8966,"Ġconvince":8967,"acles":8968,"ĠPer":8969,"Ġappet":8970,"ĠGray":8971,"ĠGemma":8972,"Ġdev":8973,"Ġdeck":8974,"Ġtalents":8975,"Ġheadache":8976,"ĠNice":8977,"ĠNumber":8978,"Ġsquawk":8979,"Ġcrisp":8980,"Ġforgives":8981,"Ġdroplets":8982,"Ġsweetly":8983,"usa":8984,"Ġsingers":8985,"Ġtripping":8986,"Ġbait":8987,"Ġsoftness":8988,"Ġtastiest":8989,"Ġmessed":8990,"ĠInny":8991,"Ġdripped":8992,"Ġmovements":8993,"spe":8994,"Ġtablet":8995,"Jackie":8996,"olby":8997,"osa":8998,"Ġcompete":8999,"Ġpointer":9000,"ĠTodd":9001,"iggie":9002,"Ġgratefully":9003,"upert":9004,"ormation":9005,"idents":9006,"ĠAllie":9007,"emon":9008,"Ġcupcake":9009,"Ġalongside":9010,"ĠFlopsy":9011,"ĠEmmaÃ¢":9012,"Ġinvites":9013,"Ġnecks":9014,"Ġmilksh":9015,"Ġbelongings":9016,"Ġjourneys":9017,"ĠOak":9018,"Ġreturning":9019,"Ġroundab":9020,"Ġfeathered":9021,"Ġoceans":9022,"Ġlayer":9023,"Ġtidied":9024,"Ġsolving":9025,"Ġcooper":9026,"Ġbells":9027,"Ġtrusty":9028,"Ġdisappointment":9029,"Ġstuffing":9030,"Ġmoonlight":9031,"Ġhonesty":9032,"Ġfrustration":9033,"Ġtickling":9034,"Ġboarded":9035,"Ġteams":9036,"erpiece":9037,"Ġpizzas":9038,"Ġrelaxing":9039,"Ġadds":9040,"Ġtraps":9041,"Ġguarding":9042,"Ġhunters":9043,"Ġsupporting":9044,"Ġwealth":9045,"Ġcharm":9046,"Ġquestioned":9047,"Ġsleigh":9048,"Ġsniffled":9049,"Ġpandas":9050,"Ġmusicians":9051,"Ġinsepara":9052,"ĠAlan":9053,"ĠAlong":9054,"ĠPatty":9055,"Ġairplanes":9056,"Ġimproving":9057,"manda":9058,"ĠhadnÃ¢":9059,"Ġsprinkle":9060,"Ġhedgehog":9061,"Ġdemanding":9062,"Ġsneaks":9063,"Ġbleated":9064,"Ġdifferences":9065,"Ġquacking":9066,"Ġmassages":9067,"Anne":9068,"Ġpoisoned":9069,"Ġfloaty":9070,"Ġunicorns":9071,"Ġhurricanes":9072,"Shoo":9073,"ĠVroom":9074,"ĠRobert":9075,"Ġfireflies":9076,"ĠJanet":9077,"Ġexpecting":9078,"ĠYvonne":9079,"Ġchatting":9080,"Spark":9081,"Spike":9082,"ĠAnother":9083,"ĠGranny":9084,"Ġcommon":9085,"Ġcommunicate":9086,"Ġswirls":9087,"Ġhealthier":9088,"Ġamongst":9089,"Betty":9090,"Ġgaps":9091,"Ġtempted":9092,"Ġbehaviour":9093,"ĠBernie":9094,"Ġshrugs":9095,"People":9096,"Ġdepths":9097,"ĠRocky":9098,"Suzy":9099,"Ġcowboys":9100,"ĠPippin":9101,"ĠStarla":9102,"Ġdisobeyed":9103,"Ġsensation":9104,"Ġhundreds":9105,"Playing":9106,"Ġgeese":9107,"Ġpeeped":9108,"Ġmasterpiece":9109,"Ġpurchase":9110,"ĠHugo":9111,"ĠRani":9112,"Ġsnowflakes":9113,"Ġtheatre":9114,"Ġlarger":9115,"Ġlantern":9116,"atilda":9117,"ĠAccidents":9118,"Ġenemies":9119,"Ġroundabout":9120,"Ġinseparable":9121,"Ana":9122,"Bo":9123,"Dog":9124,"Each":9125,"Fortunately":9126,"Martha":9127,"Nick":9128,"Nutty":9129,"Pip":9130,"Poppy":9131,"Phil":9132,"Rob":9133,"Tam":9134,"Try":9135,"ded":9136,"evin":9137,"iam":9138,"lia":9139,"mary":9140,"nings":9141,"of":9142,"opp":9143,"pan":9144,"past":9145,"phew":9146,"rupt":9147,"uke":9148,"uess":9149,"wee":9150,"Ġties":9151,"Ġsus":9152,"Ġsigning":9153,"Ġsection":9154,"Ġtoad":9155,"inct":9156,"Ġhudd":9157,"Ġhuffed":9158,"Ġwaking":9159,"Ġwaded":9160,"reg":9161,"Ġfaint":9162,"Ġlull":9163,"Ġlush":9164,"ering":9165,"Ġwashes":9166,"Ġpapa":9167,"Ġponies":9168,"ĠTw":9169,"Ġogre":9170,"arley":9171,"inging":9172,"Ġgad":9173,"Ġgorge":9174,"ĠSir":9175,"ĠSilly":9176,"ĠSince":9177,"orty":9178,"Ġthump":9179,"Ġthousand":9180,"lest":9181,"iring":9182,"Ġinches":9183,"ows":9184,"Ġbea":9185,"Ġbeating":9186,"Ġyel":9187,"Ġrises":9188,"Ġformed":9189,"Ġforts":9190,"elicious":9191,"ĠBoo":9192,"ĠBri":9193,"ĠBounce":9194,"Ġwhined":9195,"Ġkilled":9196,"alt":9197,"alty":9198,"Ġnephew":9199,"Ġrely":9200,"ĠMan":9201,"ĠItsy":9202,"Ġank":9203,"Ġloos":9204,"Ġlobby":9205,"Ġloses":9206,"urger":9207,"ĠAmen":9208,"ĠAmanda":9209,"Ġknit":9210,"Ġknitting":9211,"hings":9212,"oody":9213,"umm":9214,"Ġscre":9215,"ĠmanÃ¢":9216,"ĠWhe":9217,"ĠWipe":9218,"Ġtreas":9219,"Ġchief":9220,"Ġwhoever":9221,"Ġlace":9222,"Ġlaunched":9223,"ĠLight":9224,"ĠLuc":9225,"ĠLuggage":9226,"ĠEvie":9227,"Ġbecomes":9228,"Ġblade":9229,"Ġblob":9230,"Ġblues":9231,"ĠDing":9232,"ĠDale":9233,"ĠDeal":9234,"ĠDennis":9235,"Ġabsolut":9236,"isted":9237,"ession":9238,"ĠFisky":9239,"Ġhollow":9240,"Ġtrades":9241,"Ġslight":9242,"Ġmoons":9243,"venir":9244,"inkle":9245,"Ġrunny":9246,"izmo":9247,"Momo":9248,"Ġfoam":9249,"ĠJody":9250,"Ġraked":9251,"ĠCandy":9252,"ĠChew":9253,"ÅĵDaddy":9254,"Ġwond":9255,"Ġglared":9256,"Ġdances":9257,"Ġwinding":9258,"Ġunicycle":9259,"Ġuncovered":9260,"ĠPr":9261,"ĠPower":9262,"Ġowns":9263,"Ġlistener":9264,"ĠGreat":9265,"ĠGigi":9266,"Ġaccess":9267,"Ġbrightened":9268,"ĠRiding":9269,"Ġmornings":9270,"atha":9271,"Ġwarmest":9272,"Ġzippers":9273,"Ġpartner":9274,"Ġhatched":9275,"Ġlighthouse":9276,"ĠInch":9277,"attered":9278,"Ġelves":9279,"Ġhunger":9280,"Ġtablecloth":9281,"Ġsnowing":9282,"Ġdeeply":9283,"ĠKris":9284,"ĠToot":9285,"uggy":9286,"angle":9287,"Ġguided":9288,"Ġmustered":9289,"Ġtownspe":9290,"Ġcollap":9291,"Ġpail":9292,"Ġhealing":9293,"Ġinstant":9294,"Ġinstinct":9295,"ixie":9296,"ĠFlip":9297,"Ġpennies":9298,"toed":9299,"balls":9300,"hocol":9301,"Ġprotection":9302,"Ġrepairs":9303,"Ġmattered":9304,"Ġdesigning":9305,"Ġhorri":9306,"Ġimaginary":9307,"ĠReady":9308,"ĠStuart":9309,"Ġcoolest":9310,"Ġmindful":9311,"Still":9312,"Stella":9313,"ĠLea":9314,"Ġtunes":9315,"Ġcafe":9316,"Ġmeadows":9317,"izzi":9318,"Ġgroups":9319,"Ġnecklaces":9320,"Ġtickles":9321,"ĠBean":9322,"Ġincredibly":9323,"Ġparrots":9324,"ĠBlack":9325,"ĠBlink":9326,"Ġtests":9327,"Ġharmful":9328,"Ġtwists":9329,"Ġtrunks":9330,"Ġcheckout":9331,"Ġsneezes":9332,"Ġcaterpillars":9333,"Ġapology":9334,"Ġloyalty":9335,"Ġangrier":9336,"Ġrewarding":9337,"cutter":9338,"Ġlaws":9339,"Ġhoops":9340,"Ġavoided":9341,"ĠCluck":9342,"Ġrepairing":9343,"ĠShade":9344,"Ġfurious":9345,"Ġburger":9346,"Ġsurrounding":9347,"Ġconfidence":9348,"Ġunlocking":9349,"Ġostriches":9350,"Ġsincere":9351,"Ġimaginations":9352,"ĠJuly":9353,"ĠIsab":9354,"Ġlumberj":9355,"Ġapproach":9356,"Ġfleas":9357,"ahlia":9358,"Ġscratchy":9359,"Ġnightmares":9360,"ÅĵWeÃ¢":9361,"ĠViolet":9362,"Ġopinions":9363,"ĠSeeing":9364,"Ġbanging":9365,"Ġcalmer":9366,"ĠTuesdays":9367,"Daniel":9368,"Ġdisagreeing":9369,"Ġcrowded":9370,"Ġgreeting":9371,"Ġintroducing":9372,"Ġflashes":9373,"ĠPrint":9374,"ĠBobb":9375,"ĠBossy":9376,"Ġprojects":9377,"ĠMelvin":9378,"Ġunfair":9379,"Ġunfamil":9380,"Ġcommunity":9381,"ubbs":9382,"Ġmooing":9383,"ĠMonkey":9384,"Ġstroller":9385,"ĠBirdy":9386,"Ġdetect":9387,"Ġpecking":9388,"Ġbombs":9389,"Ġfirefighters":9390,"Frankie":9391,"Ġcondition":9392,"Ġconnection":9393,"Ġheights":9394,"Ġmember":9395,"Ġblessed":9396,"Ġpounds":9397,"Ġunloaded":9398,"Ġtingling":9399,"Ġwrinkled":9400,"Ġnibbling":9401,"Ġshinier":9402,"racey":9403,"Ġdesperate":9404,"ĠStripes":9405,"Cheese":9406,"Ġsouvenir":9407,"ĠSandra":9408,"Ġpretzel":9409,"Ġpleasant":9410,"Ġpopsicle":9411,"Ġpurpose":9412,"ĠJulia":9413,"Ġsnorted":9414,"Ġgalloped":9415,"Ġwhoosh":9416,"Ġpositive":9417,"Ġenergized":9418,"Ġdouble":9419,"Ġmitts":9420,"Ġrevved":9421,"ĠPenelope":9422,"Ġabandoned":9423,"ĠPercy":9424,"Ġmilkshake":9425,"Ġlullaby":9426,"Ġgorgeous":9427,"Ġyelped":9428,"Ġtownspeople":9429,"hocolate":9430,"Ġunfamiliar":9431,"\"!":9432,"Big":9433,"Bang":9434,"Con":9435,"Eva":9436,"Hmm":9437,"Jonny":9438,"Jeremy":9439,"Luna":9440,"Lizzie":9441,"Make":9442,"Maddie":9443,"Ooh":9444,"Open":9445,"Ray":9446,"Rain":9447,"Sn":9448,"Snow":9449,"Yog":9450,"ander":9451,"abr":9452,"bum":9453,"bank":9454,"belle":9455,"five":9456,"flow":9457,"hh":9458,"just":9459,"ker":9460,"lo":9461,"mony":9462,"nif":9463,"pr":9464,"prin":9465,"rous":9466,"ruck":9467,"rant":9468,"ruct":9469,"site":9470,"tons":9471,"ua":9472,"uel":9473,"uries":9474,"woo":9475,"yla":9476,"zip":9477,"heard":9478,"Ġtang":9479,"Ġtugging":9480,"Ġsom":9481,"Ġsipped":9482,"Ġwicked":9483,"Ġtot":9484,"Ġbicy":9485,"rested":9486,"Ġfist":9487,"Ġful":9488,"Ġlas":9489,"Ġlump":9490,"Ġpy":9491,"Ġpouch":9492,"Ġpounced":9493,"ĠTall":9494,"ĠTracey":9495,"isdom":9496,"isbee":9497,"Ġgumb":9498,"atic":9499,"Ġnook":9500,"Ġniece":9501,"Ġsacks":9502,"Ġhare":9503,"Ġhamb":9504,"Ġhabit":9505,"aned":9506,"onest":9507,"lephant":9508,"ĠHurry":9509,"irly":9510,"Ġinched":9511,"Ġris":9512,"Ġrumm":9513,"Ġstur":9514,"Ġstained":9515,"ĠIce":9516,"Ġsoot":9517,"Ġplayd":9518,"Ġplayroom":9519,"ĠweÃ¢":9520,"Ġforwards":9521,"ĠBug":9522,"ĠBree":9523,"ĠBucky":9524,"ĠBrand":9525,"ĠBiscuit":9526,"ĠBRO":9527,"Ġlif":9528,"Ġlittlest":9529,"Ġdock":9530,"Ġwhirl":9531,"Ġwhine":9532,"ending":9533,"ĠMabel":9534,"ĠMurphy":9535,"ĠMatilda":9536,"Ġass":9537,"ĠfriendÃ¢":9538,"Ġbold":9539,"Ġspikes":9540,"indi":9541,"fus":9542,"ĠAce":9543,"ĠAddy":9544,"ical":9545,"ĠJam":9546,"ĠJump":9547,"ĠJord":9548,"Ġclue":9549,"Ġalbum":9550,"ĠboyÃ¢":9551,"Ġrobe":9552,"ĠWo":9553,"ĠWor":9554,"ĠWait":9555,"ĠWoody":9556,"Ġcoiled":9557,"Ġotherwise":9558,"Ġchamp":9559,"Ġlapt":9560,"ĠLia":9561,"ĠLung":9562,"ĠLots":9563,"Ġflick":9564,"Ġfluff":9565,"ĠElle":9566,"Ġswitches":9567,"Ġvoy":9568,"ĠDory":9569,"Ġbubbled":9570,"Ġbubbly":9571,"Ġbubbling":9572,"ĠFire":9573,"ĠFurry":9574,"ĠFortunately":9575,"ĠFighting":9576,"aura":9577,"ersaul":9578,"Ġanyways":9579,"Ġmoat":9580,"Ġoverhead":9581,"Ġoverheard":9582,"Ġtwel":9583,"Ġopt":9584,"Ġcombs":9585,"ĠJackÃ¢":9586,"ĠJoJo":9587,"ĠJoanna":9588,"ĠJodie":9589,"Ġflowed":9590,"ĠColby":9591,"ÅĵM":9592,"ÅĵOK":9593,"ÅĵMum":9594,"ship":9595,"ocks":9596,"Ġrealizing":9597,"LetÃ¢":9598,"Ġdollar":9599,"Ġdoorstep":9600,"Ġfrisbee":9601,"Ġdrag":9602,"ĠPaw":9603,"ĠPretty":9604,"ĠPaula":9605,"ĠPiggie":9606,"ĠPixie":9607,"Ġdisaster":9608,"ĠGail":9609,"ĠGizmo":9610,"ĠRight":9611,"ĠRia":9612,"ĠRosa":9613,"Ġdifferently":9614,"Ġsquish":9615,"Ġsquaw":9616,"Johnnie":9617,"Ġarmy":9618,"ĠThough":9619,"Ġsweetness":9620,"ushes":9621,"Ġfloppy":9622,"Ġcreak":9623,"Ġcutter":9624,"Ġcutest":9625,"Ġcooled":9626,"Ġ--":9627,"Ġwoodcutter":9628,"Ġdrip":9629,"ĠDaisyÃ¢":9630,"Ġlefto":9631,"avannah":9632,"Ġhotdog":9633,"Ġjuices":9634,"osite":9635,"Ġjoyfully":9636,"ĠWhatÃ¢":9637,"Ġriverbank":9638,"Ġgulp":9639,"Ġmini":9640,"Ġsignature":9641,"Ġbaskets":9642,"Ġcupboards":9643,"Ġteacup":9644,"Ġdisappearing":9645,"Ġwinners":9646,"Ġsprout":9647,"Ġsprung":9648,"Ġlunchbox":9649,"Ġowls":9650,"Ġmats":9651,"Ġfanc":9652,"ĠOink":9653,"ĠOff":9654,"Ġpatients":9655,"Ġfarmers":9656,"Ġcollector":9657,"Ġwrapper":9658,"Ġpresence":9659,"Ġpasses":9660,"Ġhopeless":9661,"ĠChubbs":9662,"Ġservice":9663,"Goodnight":9664,"Ġmysteries":9665,"Ġlasted":9666,"Ġdelightful":9667,"Ġspeck":9668,"ĠStill":9669,"Ġminded":9670,"moke":9671,"Ġmiracle":9672,"Ġpinching":9673,"ĠBeary":9674,"ĠBehind":9675,"Ġfeeder":9676,"oopy":9677,"Ġexams":9678,"Ġeldest":9679,"Ġcapes":9680,"Ġpriv":9681,"Ġgrownup":9682,"Ġgrownups":9683,"ĠZoomy":9684,"Ġaware":9685,"Ġblooms":9686,"Ġcracks":9687,"Ġmelts":9688,"ĠRosemary":9689,"Ġregularly":9690,"Ġcrystals":9691,"Ġstreams":9692,"Ġrescuing":9693,"Ġfiercely":9694,"Ġwheeled":9695,"Ġguardian":9696,"Ġpersistence":9697,"Ġseriously":9698,"Ġangrily":9699,"God":9700,"Ġceremony":9701,"keepers":9702,"Ġcurl":9703,"Ġresisting":9704,"coming":9705,"ĠAlexis":9706,"Ġjets":9707,"Ġstacks":9708,"Ġyawns":9709,"Ġimpatiently":9710,"Ġcampsite":9711,"Ġexperiment":9712,"Ġbulls":9713,"Ġfishermen":9714,"ĠShow":9715,"ĠShould":9716,"ĠShare":9717,"Ġzebras":9718,"Chirpy":9719,"hearted":9720,"ĠMissile":9721,"ĠInstantly":9722,"ĠPatches":9723,"Ġquarre":9724,"Ġdustpan":9725,"weeny":9726,"Ġshortcut":9727,"Ġwiggling":9728,"Ġflooding":9729,"Ġrotted":9730,"Ġnovels":9731,"Ġapplauding":9732,"Ġchallenged":9733,"Ġholidays":9734,"Ġsurrendering":9735,"Ġmeows":9736,"Ġvillager":9737,"ĠWhoever":9738,"ĠVery":9739,"Ġweapons":9740,"Along":9741,"ĠOliver":9742,"Ġ15":9743,"Ġequally":9744,"Ġcompleting":9745,"Ġdisagreement":9746,"Ahoy":9747,"Ġmotioned":9748,"Ġventure":9749,"Ġwidely":9750,"odore":9751,"Buzzy":9752,"ĠCarrot":9753,"ĠMona":9754,"Ġmesmerised":9755,"ealing":9756,"Ġroute":9757,"Ġsnuggling":9758,"Ġannoying":9759,"Ġopposite":9760,"Ġwinks":9761,"Ġpeasant":9762,"Ġdodging":9763,"Ġchoosing":9764,"Ġundo":9765,"Ġundone":9766,"Ġnearer":9767,"Ġscientists":9768,"Ġpounding":9769,"Ġunload":9770,"Ġcowboy":9771,"Ġnibbled":9772,"ylan":9773,"ĠSwim":9774,"Ġtoppings":9775,"Ġrinsed":9776,"Ġmarveled":9777,"ĠQuickly":9778,"Anytime":9779,"Ġelectricity":9780,"ĠTrey":9781,"ĠLaure":9782,"Ġattempts":9783,"Ġcartwheel":9784,"Ġcontentedly":9785,"Ġjuiciest":9786,"Ġcomplimented":9787,"Ġsquealing":9788,"Ġechoing":9789,"Brown":9790,"urfers":9791,"Ġfunniest":9792,"Ġscreech":9793,"Ġappetite":9794,"Ġdevast":9795,"Philip":9796,"Ġhuddled":9797,"Ġgadgets":9798,"Ġankle":9799,"Ġtreasured":9800,"Ġwondrous":9801,"Ġcollapsed":9802,"abrina":9803,"nifer":9804,"Ġsomersaul":9805,"Ġbicycles":9806,"Ġgumball":9807,"Ġsturdy":9808,"ĠBrandy":9809,"ĠJordan":9810,"Ġlaptop":9811,"Ġvoyage":9812,"'.\"":9813,"?!":9814,"Bark":9815,"Bee":9816,"Baa":9817,"Cat":9818,"Care":9819,"Cool":9820,"Ds":9821,"Els":9822,"Fro":9823,"Friends":9824,"Lenny":9825,"Lizzy":9826,"Mick":9827,"Maisy":9828,"OO":9829,"Per":9830,"Papa":9831,"Robby":9832,"Ralph":9833,"Squ":9834,"Sweet":9835,"Sophia":9836,"Turn":9837,"Zoom":9838,"bster":9839,"che":9840,"cri":9841,"cies":9842,"cQueen":9843,"ece":9844,"freeze":9845,"fived":9846,"good":9847,"gum":9848,"gth":9849,"giving":9850,"jest":9851,"kind":9852,"nor":9853,"picious":9854,"rink":9855,"riting":9856,"sitter":9857,"tail":9858,"uri":9859,"uds":9860,"ww":9861,"wreck":9862,"ysters":9863,"ziest":9864,"Ġ5":9865,"Ġicky":9866,"Ġtiring":9867,"Ġaqu":9868,"Ġsis":9869,"Ġsizz":9870,"Ġsips":9871,"edic":9872,"Ġbins":9873,"inch":9874,"Ġfries":9875,"Ġcy":9876,"Ġlen":9877,"Ġlitter":9878,"Ġlatch":9879,"Ġdart":9880,"eros":9881,"erts":9882,"Ġpals":9883,"Ġpipes":9884,"ĠTell":9885,"ĠToys":9886,"Ġoo":9887,"Ġoars":9888,"ayed":9889,"arissa":9890,"arbie":9891,"ingle":9892,"Ġgroom":9893,"eny":9894,"enore":9895,"Ġnic":9896,"Ġnations":9897,"ĠSummer":9898,"ĠSplash":9899,"ĠSavannah":9900,"ĠSabrina":9901,"llut":9902,"ĠHim":9903,"ĠHood":9904,"ĠHapp":9905,"ĠHairy":9906,"ĠHatty":9907,"etah":9908,"iri":9909,"vering":9910,"Ġunn":9911,"Ġripp":9912,"Ġriches":9913,"Ġsteth":9914,"Ġstiff":9915,"cel":9916,"Ġsobbing":9917,"ada":9918,"adily":9919,"stal":9920,"Ġwebs":9921,"Ġmomma":9922,"ĠBess":9923,"ĠBink":9924,"ĠBopus":9925,"ĠBelle":9926,"Theodore":9927,"Ġshame":9928,"Ġshif":9929,"Ġshaky":9930,"Ġshimmering":9931,"lyx":9932,"Ġdozed":9933,"Ġwhizz":9934,"Ġwhiskers":9935,"Ġkit":9936,"endant":9937,"alf":9938,"aloo":9939,"althy":9940,"Ġreeds":9941,"ĠMother":9942,"ĠMila":9943,"ĠMusa":9944,"ĠMcQueen":9945,"rac":9946,"rain":9947,"rapped":9948,"rystal":9949,"Ġlobster":9950,"Ġbolt":9951,"Ġjars":9952,"Ġjugg":9953,"Ġspool":9954,"Ġspied":9955,"Ġspik":9956,"Ġspatul":9957,"indness":9958,"Ġatmo":9959,"ĠAlly":9960,"ĠAmaz":9961,"ĠAde":9962,"romise":9963,"ĠJin":9964,"ĠJemma":9965,"ĠJasper":9966,"umpl":9967,"umana":9968,"Ġclam":9969,"Ġclips":9970,"Ġaloud":9971,"Ġlever":9972,"icking":9973,"Ġroast":9974,"ashing":9975,"Ġseeking":9976,"ĠWilly":9977,"ĠWisdom":9978,"ĠbirdÃ¢":9979,"ieve":9980,"ifi":9981,"agine":9982,"Ġprank":9983,"Ġprison":9984,"Ġcargo":9985,"Ġchunk":9986,"ĠLaser":9987,"ĠLizzi":9988,"ĠLenore":9989,"ĠEating":9990,"ĠEaster":9991,"ploy":9992,"Ġswapped":9993,"Ġvows":9994,"usty":9995,"Ġblame":9996,"Ġblossom":9997,"ĠDay":9998,"ĠDara":9999}